{
  "version": "1.0",
  "truncation": null,
  "padding": null,
  "added_tokens": [
    {
      "id": 0,
      "content": "<unk>",
      "single_word": false,
      "lstrip": false,
      "rstrip": false,
      "normalized": false,
      "special": true
    },
    {
      "id": 1,
      "content": "<s>",
      "single_word": false,
      "lstrip": false,
      "rstrip": false,
      "normalized": false,
      "special": true
    },
    {
      "id": 2,
      "content": "</s>",
      "single_word": false,
      "lstrip": false,
      "rstrip": false,
      "normalized": false,
      "special": true
    },
    {
      "id": 3,
      "content": "<pad>",
      "single_word": false,
      "lstrip": false,
      "rstrip": false,
      "normalized": false,
      "special": true
    }
  ],
  "normalizer": null,
  "pre_tokenizer": {
    "type": "Sequence",
    "pretokenizers": [
      {
        "type": "Split",
        "pattern": {
          "Regex": " ?[^(\\s|[.,!?…。，、।۔،])]+"
        },
        "behavior": "Isolated",
        "invert": false
      },
      {
        "type": "ByteLevel",
        "add_prefix_space": false,
        "trim_offsets": true,
        "use_regex": false
      }
    ]
  },
  "post_processor": {
    "type": "ByteLevel",
    "add_prefix_space": true,
    "trim_offsets": false,
    "use_regex": false
  },
  "decoder": {
    "type": "ByteLevel",
    "add_prefix_space": true,
    "trim_offsets": true,
    "use_regex": false
  },
  "model": {
    "type": "BPE",
    "dropout": null,
    "unk_token": null,
    "continuing_subword_prefix": null,
    "end_of_word_suffix": null,
    "fuse_unk": false,
    "byte_fallback": false,
    "ignore_merges": false,
    "vocab": {
      "<unk>": 0,
      "<s>": 1,
      "</s>": 2,
      "<pad>": 3,
      "!": 4,
      "\"": 5,
      "#": 6,
      "$": 7,
      "%": 8,
      "&": 9,
      "'": 10,
      "(": 11,
      ")": 12,
      "*": 13,
      "+": 14,
      ",": 15,
      "-": 16,
      ".": 17,
      "/": 18,
      "0": 19,
      "1": 20,
      "2": 21,
      "3": 22,
      "4": 23,
      "5": 24,
      "6": 25,
      "7": 26,
      "8": 27,
      "9": 28,
      ":": 29,
      ";": 30,
      "<": 31,
      "=": 32,
      ">": 33,
      "?": 34,
      "@": 35,
      "A": 36,
      "B": 37,
      "C": 38,
      "D": 39,
      "E": 40,
      "F": 41,
      "G": 42,
      "H": 43,
      "I": 44,
      "J": 45,
      "K": 46,
      "L": 47,
      "M": 48,
      "N": 49,
      "O": 50,
      "P": 51,
      "Q": 52,
      "R": 53,
      "S": 54,
      "T": 55,
      "U": 56,
      "V": 57,
      "W": 58,
      "X": 59,
      "Y": 60,
      "Z": 61,
      "[": 62,
      "\\": 63,
      "]": 64,
      "^": 65,
      "_": 66,
      "`": 67,
      "a": 68,
      "b": 69,
      "c": 70,
      "d": 71,
      "e": 72,
      "f": 73,
      "g": 74,
      "h": 75,
      "i": 76,
      "j": 77,
      "k": 78,
      "l": 79,
      "m": 80,
      "n": 81,
      "o": 82,
      "p": 83,
      "q": 84,
      "r": 85,
      "s": 86,
      "t": 87,
      "u": 88,
      "v": 89,
      "w": 90,
      "x": 91,
      "y": 92,
      "z": 93,
      "{": 94,
      "|": 95,
      "}": 96,
      "~": 97,
      "¡": 98,
      "¢": 99,
      "£": 100,
      "¤": 101,
      "¥": 102,
      "¦": 103,
      "§": 104,
      "¨": 105,
      "©": 106,
      "ª": 107,
      "«": 108,
      "¬": 109,
      "®": 110,
      "¯": 111,
      "°": 112,
      "±": 113,
      "²": 114,
      "³": 115,
      "´": 116,
      "µ": 117,
      "¶": 118,
      "·": 119,
      "¸": 120,
      "¹": 121,
      "º": 122,
      "»": 123,
      "¼": 124,
      "½": 125,
      "¾": 126,
      "¿": 127,
      "Â": 128,
      "Ã": 129,
      "Ä": 130,
      "Å": 131,
      "Æ": 132,
      "Ç": 133,
      "È": 134,
      "É": 135,
      "Ê": 136,
      "Ë": 137,
      "Ì": 138,
      "Í": 139,
      "Î": 140,
      "Ï": 141,
      "Ð": 142,
      "Ñ": 143,
      "Ò": 144,
      "Ó": 145,
      "Ô": 146,
      "Õ": 147,
      "Ö": 148,
      "×": 149,
      "Ø": 150,
      "Ù": 151,
      "Ú": 152,
      "Û": 153,
      "Ü": 154,
      "Ý": 155,
      "Þ": 156,
      "ß": 157,
      "à": 158,
      "á": 159,
      "â": 160,
      "ã": 161,
      "ä": 162,
      "å": 163,
      "æ": 164,
      "ç": 165,
      "è": 166,
      "é": 167,
      "ê": 168,
      "ë": 169,
      "ì": 170,
      "í": 171,
      "î": 172,
      "ï": 173,
      "ð": 174,
      "ñ": 175,
      "ĉ": 176,
      "Ċ": 177,
      "Ġ": 178,
      "ġ": 179,
      "Ģ": 180,
      "ģ": 181,
      "Ĥ": 182,
      "ĥ": 183,
      "Ħ": 184,
      "ħ": 185,
      "Ĩ": 186,
      "ĩ": 187,
      "Ī": 188,
      "ī": 189,
      "Ĭ": 190,
      "ĭ": 191,
      "Į": 192,
      "į": 193,
      "İ": 194,
      "ı": 195,
      "Ĳ": 196,
      "ĳ": 197,
      "Ĵ": 198,
      "ĵ": 199,
      "Ķ": 200,
      "ķ": 201,
      "ĸ": 202,
      "Ĺ": 203,
      "ĺ": 204,
      "Ļ": 205,
      "ļ": 206,
      "Ľ": 207,
      "ľ": 208,
      "Ŀ": 209,
      "ŀ": 210,
      "Ł": 211,
      "ł": 212,
      "Ń": 213,
      "á»": 214,
      "áº": 215,
      "Ġt": 216,
      "ng": 217,
      "Ġc": 218,
      "ĠÄ": 219,
      "ĠÄĳ": 220,
      "nh": 221,
      "Ãł": 222,
      "Ġv": 223,
      "Æ°": 224,
      "Ġth": 225,
      "Ã¡": 226,
      "Ġl": 227,
      "Ġh": 228,
      "iá»": 229,
      "Ġtr": 230,
      "Ġb": 231,
      "Ġch": 232,
      "Æ°á»": 233,
      "Ġk": 234,
      "Ġm": 235,
      "Ġs": 236,
      "Ġn": 237,
      "áº¿": 238,
      "Ġnh": 239,
      "áº¡": 240,
      "á»Ļ": 241,
      "Ã´": 242,
      "áº£": 243,
      "Ãª": 244,
      "Ġg": 245,
      "Ġd": 246,
      "Ġkh": 247,
      "Ã³": 248,
      "Ġp": 249,
      "Ġng": 250,
      "á»ĳ": 251,
      "Ġph": 252,
      "Ã¢": 253,
      "ĠT": 254,
      "iá»ĩ": 255,
      "á»§": 256,
      "áº¥": 257,
      "ĠvÃł": 258,
      "Ã¡c": 259,
      "Ãªn": 260,
      "á»ĭ": 261,
      "Ã´ng": 262,
      ".Ċ": 263,
      "Æ¡": 264,
      "uy": 265,
      "áºŃ": 266,
      "Ġq": 267,
      "Ġvá»": 268,
      "Äĥ": 269,
      "ĠlÃł": 270,
      "áº§": 271,
      "Ã¬": 272,
      "Ġtá»": 273,
      "Ġcá»§": 274,
      "Ġcá»§a": 275,
      "Ġgi": 276,
      "Æ°á»£": 277,
      "Æ°á»Ŀ": 278,
      "an": 279,
      "ĠN": 280,
      "ÃŃ": 281,
      "Ġthá»": 282,
      "ĠÄĳá»": 283,
      "iáº¿": 284,
      "Ġx": 285,
      "ĠC": 286,
      "Ġqu": 287,
      "ong": 288,
      "Ġhá»": 289,
      "Ã¢n": 290,
      "Ľi": 291,
      "áº¡i": 292,
      "ĠcÃ³": 293,
      "Ġr": 294,
      "Ã£": 295,
      "ĠcÃ¡c": 296,
      "Æ°á»£c": 297,
      "Ġ1": 298,
      "á»Ļt": 299,
      "ĠH": 300,
      "áº¥t": 301,
      "ĠÄĳÆ°á»£c": 302,
      "Ãły": 303,
      "ch": 304,
      "á»©": 305,
      "á»±": 306,
      "á»Ł": 307,
      "ĠB": 308,
      "iá»ģ": 309,
      "Ġtrong": 310,
      "Ġmá»Ļt": 311,
      "Ã¬nh": 312,
      "iÃªn": 313,
      "Ãº": 314,
      "Ġ2": 315,
      "á»¥": 316,
      "ĠÄĲ": 317,
      "Äĥm": 318,
      "iá»ĩn": 319,
      "áº¯": 320,
      "Ãłnh": 321,
      "ĠL": 322,
      "oÃł": 323,
      "..": 324,
      "á»¯": 325,
      "ĠV": 326,
      "inh": 327,
      "iá»ĥ": 328,
      "Æ°á»Ľ": 329,
      "uyá»": 330,
      "ĠTh": 331,
      "Æ°Æ¡": 332,
      "Ã²": 333,
      "Æ°á»Ŀi": 334,
      "ai": 335,
      "iá»ģu": 336,
      "Ġcho": 337,
      "Ġvá»Ľi": 338,
      "áº·": 339,
      "Ã¹": 340,
      "ĠM": 341,
      "Æ°Æ¡ng": 342,
      "Æ°á»Ŀng": 343,
      "áº§n": 344,
      "am": 345,
      "ĠnÄĥm": 346,
      "áº§u": 347,
      "Ġ(": 348,
      "ĠÄĳÃ£": 349,
      "áº£i": 350,
      "ĠngÆ°á»Ŀi": 351,
      "Ġngh": 352,
      "on": 353,
      "ay": 354,
      "anh": 355,
      "ĠS": 356,
      "in": 357,
      "ĠÄĳá»Ļ": 358,
      "áº£n": 359,
      "ĠkhÃ´ng": 360,
      "Ġhá»į": 361,
      "ao": 362,
      "ung": 363,
      "áºŃn": 364,
      "Ġsá»ĳ": 365,
      "ĠP": 366,
      "Æ°á»Ľc": 367,
      "ang": 368,
      "á»ķ": 369,
      "áº¿n": 370,
      "áºŃt": 371,
      "Ã¢y": 372,
      "au": 373,
      "áº¿t": 374,
      "ĠnÃły": 375,
      "á»ĵ": 376,
      "ÃŃnh": 377,
      "ĠTr": 378,
      "er": 379,
      "á»ĳi": 380,
      "ĠĠ": 381,
      "Ġ\"": 382,
      "ĠK": 383,
      "00": 384,
      "á»ĳc": 385,
      "ĠÄĳá»ĭ": 386,
      "á»Ń": 387,
      "Ġthu": 388,
      "á»į": 389,
      "|Ċ": 390,
      "Ã¡ng": 391,
      "Ġho": 392,
      "Ġá»Ł": 393,
      "Ã¡t": 394,
      "á»¯ng": 395,
      "ĠnhÆ°": 396,
      "Ã¡n": 397,
      "iáº¿n": 398,
      "Ŀi": 399,
      "á»©c": 400,
      "á»Ļi": 401,
      "Ġtá»«": 402,
      "Å©": 403,
      "Ġthá»ĥ": 404,
      "Ġlá»": 405,
      "Äĥng": 406,
      "ĠA": 407,
      "ĠÄĳá»ĥ": 408,
      "en": 409,
      "Ã½": 410,
      "eo": 411,
      "ĠCh": 412,
      "Ã¹ng": 413,
      "ĠcÃ´ng": 414,
      "Ã¡o": 415,
      "ĠNg": 416,
      "Ġnhá»¯ng": 417,
      "Æ¡n": 418,
      "ĠvÃło": 419,
      "ĠÄĳáº¿n": 420,
      "Ġkhi": 421,
      "±c": 422,
      "ĠD": 423,
      "ar": 424,
      "Ġvá»ģ": 425,
      "áº¡n": 426,
      "ĠÄĳáº§u": 427,
      "oÃłi": 428,
      "Ġtáº¡i": 429,
      "ĠÄĳÃ³": 430,
      "Ġgiá»": 431,
      "iÃª": 432,
      "Ã©": 433,
      "áº©": 434,
      "áº±": 435,
      "ĠngÃły": 436,
      "Ġbá»ĭ": 437,
      "Ġra": 438,
      "iá»ĩt": 439,
      "áºŃp": 440,
      "ĠQ": 441,
      "iáº¿t": 442,
      "á»Ļc": 443,
      "Ã´i": 444,
      "ĠthÃłnh": 445,
      "ĠG": 446,
      "Ġhiá»ĩn": 447,
      "ĠPh": 448,
      "Ãłi": 449,
      "á»ĩ": 450,
      "ĠÄĳá»ĭnh": 451,
      "á»ī": 452,
      "ĠÄĳá»ĵ": 453,
      "Ġkho": 454,
      "Ãłng": 455,
      "Ã¡p": 456,
      "01": 457,
      "Äĥn": 458,
      "Ġhá»įc": 459,
      "iá»ĩu": 460,
      "ĠtrÃªn": 461,
      "á»ĳng": 462,
      "Ġsá»±": 463,
      "Ä©": 464,
      "Ġdá»¥": 465,
      "iá»ĩc": 466,
      "Ã¡i": 467,
      "Å©ng": 468,
      "ĠÄĳá»Ļng": 469,
      "Ġ3": 470,
      "áº·c": 471,
      "ia": 472,
      "oÃłn": 473,
      "áº¥p": 474,
      "ĠQu": 475,
      "ĠlÃłm": 476,
      "Ġthá»±c": 477,
      "al": 478,
      "ĠnhÃ¢n": 479,
      "ģn": 480,
      "áº½": 481,
      "iá»ĥm": 482,
      "Ġviá»ĩc": 483,
      "Ġquan": 484,
      "Ġcáº£": 485,
      "áº¡t": 486,
      "ĠÄĳá»ĵng": 487,
      "Ġdo": 488,
      "áº«": 489,
      "ÄĲ": 490,
      "ĠnÆ°á»Ľc": 491,
      "uyÃªn": 492,
      "Æ°á»£ng": 493,
      "Ġ-": 494,
      "áº±ng": 495,
      "á»±c": 496,
      "Ã¢u": 497,
      "Ġmá»": 498,
      "ÃŃch": 499,
      "Ġnhiá»ģu": 500,
      "ĠcÅ©ng": 501,
      "ĠNh": 502,
      "Ġ19": 503,
      "ĠthÃ¡ng": 504,
      "á»ĭch": 505,
      "ĠcÆ¡": 506,
      "ĠnhÃł": 507,
      "ĠchÃŃnh": 508,
      "Ãło": 509,
      "Ã¡nh": 510,
      "or": 511,
      "ĠdÃ¢n": 512,
      "áº¡o": 513,
      "áº¥y": 514,
      "áº£o": 515,
      "Ġláº¡i": 516,
      "es": 517,
      "£p": 518,
      "áº£ng": 519,
      "Ã¢m": 520,
      "ĠhÃłnh": 521,
      "....": 522,
      "Ġgia": 523,
      "Ã¡ch": 524,
      "iá»ĥn": 525,
      "Ġquy": 526,
      "uyá»ĩ": 527,
      "Ġchá»ī": 528,
      "ĥn": 529,
      "Ġtheo": 530,
      "ħn": 531,
      "áº¯c": 532,
      "ĠÃ´ng": 533,
      "Ġdá»¥ng": 534,
      "á»©ng": 535,
      "Ã²ng": 536,
      "Ġsau": 537,
      "Ġhá»£p": 538,
      "Ġtiáº¿": 539,
      "áº¥n": 540,
      "á»¥c": 541,
      "at": 542,
      "á»ı": 543,
      "Ġsáº½": 544,
      "uyá»ģn": 545,
      "Ġxu": 546,
      "Ġthá»Ŀi": 547,
      "em": 548,
      "is": 549,
      "Ã´n": 550,
      "Ġy": 551,
      "ĠphÃ¡t": 552,
      "ĠNam": 553,
      "im": 554,
      "ĠÄĳiá»ģu": 555,
      "el": 556,
      "Ã²n": 557,
      "Ġsinh": 558,
      "Ġthá»©": 559,
      "Ġdá»±": 560,
      "Ãºc": 561,
      "Æ°á»Ł": 562,
      "Ġpháº£i": 563,
      "Æ°á»Łng": 564,
      "áº·t": 565,
      "iÃªu": 566,
      "áº«n": 567,
      "Æ°a": 568,
      "áº»": 569,
      "Ġká»": 570,
      "áº¯t": 571,
      "ĠmÃł": 572,
      "Ġnháº¥t": 573,
      "ĠĠĠĠ": 574,
      "uyá»ĩn": 575,
      "Ġcu": 576,
      "Ġsá»Ń": 577,
      "ĠhÆ¡n": 578,
      "Ġnghiá»ĩ": 579,
      "oáº¡i": 580,
      "Ġvá»¥": 581,
      "ĠÄĳá»ģ": 582,
      "ĠtrÆ°á»Ŀng": 583,
      "á»ĩnh": 584,
      "Ãºng": 585,
      "ĠnÃ³": 586,
      "ĠhÃ¬nh": 587,
      "Ġcon": 588,
      "ĠlÃ½": 589,
      "Ġtá»ī": 590,
      "iá»ģn": 591,
      "á»ķi": 592,
      "Ġgiáº£i": 593,
      "us": 594,
      "Ġchá»©c": 595,
      "Ġtá»ķ": 596,
      "ĠgiÃ¡": 597,
      "ĠthÃ´ng": 598,
      "iá»ĥu": 599,
      "áº¡ng": 600,
      "ĠÃ¡n": 601,
      "ĠnháºŃn": 602,
      "Ġ4": 603,
      "Ġsáº£n": 604,
      "ĠhÃłng": 605,
      "ĠtrÃ¬nh": 606,
      "Th": 607,
      "áº¥u": 608,
      "Ġtáº¿": 609,
      "Ġ201": 610,
      "hi": 611,
      "ĠViá»ĩt": 612,
      "Ġ5": 613,
      "Ġbá»Ļ": 614,
      "Ġtá»īnh": 615,
      "Ġlu": 616,
      "ĠcÃ²n": 617,
      "áº©m": 618,
      "Ġcao": 619,
      "id": 620,
      "Ġxuáº¥t": 621,
      "Æ¡i": 622,
      "ĠviÃªn": 623,
      "Ãłn": 624,
      "it": 625,
      "áº¹": 626,
      "ĠkhÃ¡c": 627,
      "ĠR": 628,
      "Ġhá»Ļi": 629,
      "áº£m": 630,
      "Ġcáº¥p": 631,
      "ĠlÆ°á»£ng": 632,
      "ĠÄĳá»ĳi": 633,
      "ol": 634,
      "Ã³a": 635,
      "ĠÄĳi": 636,
      "ĠváºŃt": 637,
      "ĠI": 638,
      "as": 639,
      "Ġbá»ĩnh": 640,
      "Ġkáº¿t": 641,
      "ic": 642,
      "ĠnhÆ°ng": 643,
      "ĠphÃ¡p": 644,
      "ĠÄĳiá»ĥm": 645,
      "Ġtháº¿": 646,
      "ĠcÃ¹ng": 647,
      "á»ĵng": 648,
      "áº¡ch": 649,
      "ĠxÃ£": 650,
      "ĠtÃ¡c": 651,
      "Ġtiáº¿p": 652,
      "á»«": 653,
      "ĠloÃłi": 654,
      "áº¡nh": 655,
      "ĠthÃ¬": 656,
      "Ġlá»Ľ": 657,
      "áº¡m": 658,
      "ĠnÃªn": 659,
      "Ġtu": 660,
      "áº¿u": 661,
      "á»£": 662,
      "Ġqua": 663,
      "Ġhoáº·c": 664,
      "ĠtiÃªn": 665,
      "ĠÃ": 666,
      "Ġnghiá»ĩp": 667,
      "Ġthá»ĭ": 668,
      "ĠQuá»ĳc": 669,
      "Ġhai": 670,
      "ĠthÆ°á»Ŀng": 671,
      "Ġkhoa": 672,
      "ĠÄĳÆ°á»Ŀng": 673,
      "et": 674,
      "ro": 675,
      "il": 676,
      "ĠcÃ¡ch": 677,
      "á»ĳn": 678,
      "ĠU": 679,
      "ĠtrÆ°á»Ľc": 680,
      "Ġkhu": 681,
      "Ġbáº£n": 682,
      "Ġvá»ĭ": 683,
      "Æ°á»Ľng": 684,
      "ĠX": 685,
      "Ġcáº§u": 686,
      "Ġtá»±": 687,
      "Ġgiá»¯": 688,
      "ĠÄĳang": 689,
      "--": 690,
      "Ġmá»Ľi": 691,
      "ac": 692,
      "ĠKh": 693,
      "Ġthuá»Ļc": 694,
      "Ġan": 695,
      "Ġchá»§": 696,
      "ĠmÃ¡": 697,
      "02": 698,
      "ĠtÄĥng": 699,
      "Tr": 700,
      "áº¡c": 701,
      "Ġbiáº¿t": 702,
      "Ġtriá»ĥn": 703,
      "ĠtÆ°": 704,
      "ĠnÄĥng": 705,
      "iá»ħn": 706,
      "/2": 707,
      "Ġtrá»ĭ": 708,
      "Ġ6": 709,
      "ĠphÃŃ": 710,
      "uyá»ĥn": 711,
      "Ġquá»ĳc": 712,
      "ĠTrung": 713,
      "Ġbáº±ng": 714,
      "Ġcá»©": 715,
      "Ġkinh": 716,
      "Ãªu": 717,
      "ĠlÃªn": 718,
      "Ã²a": 719,
      "om": 720,
      "Ġtá»ĳ": 721,
      "Ġcháº¥t": 722,
      "ĠtÃ¬nh": 723,
      "Ġpháº§n": 724,
      "ĠGi": 725,
      "Ġthá»§": 726,
      "Ã³ng": 727,
      "Ġtin": 728,
      "Ġbáº¡n": 729,
      "Ġtá»¥": 730,
      "Ġanh": 731,
      "Ġlá»±c": 732,
      "000": 733,
      "ĠquÃ¢n": 734,
      "Ġmu": 735,
      "á»Ļng": 736,
      "á»¹": 737,
      "áº£nh": 738,
      "iá»ĩm": 739,
      "ĠtÃŃnh": 740,
      "Ġráº¥t": 741,
      "ĠhÃ³a": 742,
      "os": 743,
      "Ġtáº£": 744,
      "Ġloáº¡i": 745,
      "Ġquáº£": 746,
      "ĠmÃ¬nh": 747,
      "ĠtoÃłn": 748,
      "um": 749,
      "Ġlá»Ľn": 750,
      "ĠÄĳá»ĭa": 751,
      "á»Łi": 752,
      "ĠBá»Ļ": 753,
      "Ġcuá»Ļc": 754,
      "áº¯ng": 755,
      "Ġgiá»Ľi": 756,
      "Ġthá»ĳng": 757,
      "ĠvÃ¬": 758,
      "Ġtáº¡o": 759,
      "Ġbáº£o": 760,
      "Ġhiá»ĩu": 761,
      "ĠÄĳá»ķ": 762,
      "Ã©t": 763,
      "ĠliÃªn": 764,
      "th": 765,
      "ĠphÆ°Æ¡ng": 766,
      "Ġmáº·t": 767,
      "ĠcÃ¡o": 768,
      "á»įi": 769,
      "Ġráº±ng": 770,
      "Ġquyáº¿t": 771,
      "Ġtiá»ģn": 772,
      "Ġhá»ĩ": 773,
      "ĠbÃ¡o": 774,
      "........": 775,
      "ur": 776,
      "ĠCÃ´ng": 777,
      "ĠnhiÃªn": 778,
      "áº©n": 779,
      "),": 780,
      "le": 781,
      "ĠÄĳáº¡i": 782,
      "Ġcáº§n": 783,
      "Ġxe": 784,
      "Ġgian": 785,
      "ĠF": 786,
      "Ġquyá»ģn": 787,
      "âĢ": 788,
      ")Ċ": 789,
      "Ġ7": 790,
      "Ġthá»©c": 791,
      "ĠtÃ´i": 792,
      "Ng": 793,
      "á»įng": 794,
      "ĠtáºŃp": 795,
      "ĠtÃ¢m": 796,
      "Ġdá»ĭch": 797,
      "ĠE": 798,
      "ĠÄĳÃ¢y": 799,
      "Ġtháº¥y": 800,
      "Ġhoáº¡t": 801,
      "Æ°u": 802,
      "ĠÄĳo": 803,
      "ĠÄĥn": 804,
      "ĠphÃ²ng": 805,
      "ĠÄĳÆ¡n": 806,
      "Ġtrá»Ł": 807,
      "Ġsá»ĳng": 808,
      "ĠmÃ´": 809,
      "uyá»ħn": 810,
      "Ġphá»ĳ": 811,
      "Ch": 812,
      "Ġná»¯": 813,
      "ĠtÃłi": 814,
      "Ġláº§n": 815,
      "ĠtiÃªu": 816,
      "á»ĵi": 817,
      "Ġtra": 818,
      "Ġtráº»": 819,
      "Ġhuyá»ĩn": 820,
      "ĠÃ½": 821,
      "Ġhá»ĵ": 822,
      "Ġchiáº¿n": 823,
      "Ġtá»Ľi": 824,
      "Ġchá»©ng": 825,
      "iÃªm": 826,
      "ĠÄĳáº¥t": 827,
      "ĠsÄ©": 828,
      "Ãªm": 829,
      "ĠW": 830,
      "Ġthi": 831,
      "Ġvá»±c": 832,
      "ĠtÃŃch": 833,
      "áº¯n": 834,
      "Ġcháº¿": 835,
      "Ã¨": 836,
      "ĠdÆ°á»": 837,
      "ĠĠĠĠĠĠĠĠ": 838,
      "Ġ8": 839,
      "Ãºt": 840,
      "Ġso": 841,
      "Ġ10": 842,
      "Ã¡m": 843,
      "Ġpháº©m": 844,
      "Ġchiáº¿": 845,
      "áºŃu": 846,
      "Ġtrung": 847,
      "Ġban": 848,
      "á»Ĺ": 849,
      "ĠÄĳá»ķi": 850,
      "Ġvi": 851,
      "Ġváº«n": 852,
      "Ġgiáº£m": 853,
      "ĠnÃ³i": 854,
      "ĠNguyá»ħn": 855,
      "ĠLoÃłi": 856,
      "ĠÄĳáº¡o": 857,
      "ĠláºŃp": 858,
      "Ġdiá»ħn": 859,
      "Ġgiao": 860,
      "Ġáº£nh": 861,
      "Ġtá»¥c": 862,
      "Ġtrá»įng": 863,
      "ĠthÆ°Æ¡ng": 864,
      "Ġnay": 865,
      "ĠgÃ¢y": 866,
      "ĠvÄĥn": 867,
      "á»Ńa": 868,
      "Ġsá»Ł": 869,
      "á»ĵn": 870,
      "Ġchuyá»ĥn": 871,
      "ĠÄĳá»Ļi": 872,
      "ae": 873,
      "Ãºp": 874,
      "ĠY": 875,
      "ĠquÃ¡": 876,
      "Ġtham": 877,
      "ĠHÃł": 878,
      "ad": 879,
      "Ġhay": 880,
      "ĠchÃºng": 881,
      "á»ģ": 882,
      "Ġchá»ĭ": 883,
      "Ãµ": 884,
      "Ġnhiá»ĩm": 885,
      "Ġdoanh": 886,
      "Ġ9": 887,
      "ĠbÃł": 888,
      "ĠyÃªu": 889,
      "...": 890,
      "un": 891,
      "ĠÄĳiá»ĩn": 892,
      "oa": 893,
      "ĠJ": 894,
      "á»Ŀi": 895,
      "ĠVÄĥn": 896,
      "ĠnÃło": 897,
      "áº§m": 898,
      "Ġdá»±ng": 899,
      "Ġbáº¯t": 900,
      "Ġ200": 901,
      "Ġkhai": 902,
      "ĠtÃªn": 903,
      "ĠAnh": 904,
      "ĠÄĳÃ¡nh": 905,
      "Ġbao": 906,
      "Ġchi": 907,
      "ĠmÃ¡y": 908,
      "ĠMá»¹": 909,
      "áº±m": 910,
      "ri": 911,
      "á»Ŀ": 912,
      "Ġtriá»ĩu": 913,
      "Ġtuá»ķi": 914,
      "áºŃy": 915,
      "ĠnguyÃªn": 916,
      "Ġkhoáº£ng": 917,
      "Ã©p": 918,
      "Ġ18": 919,
      "Ġchu": 920,
      "á»ĵm": 921,
      "ed": 922,
      "Ġhoa": 923,
      "áº£y": 924,
      "Ġdáº«n": 925,
      "Ġdiá»ĩn": 926,
      "á»įn": 927,
      "ĠtrÆ°á»Łng": 928,
      "ĠsÃ¡t": 929,
      "uyáº¿n": 930,
      "ĠphÃ¢n": 931,
      "Æ°ng": 932,
      "uyáº¿t": 933,
      "áº³": 934,
      "Ġem": 935,
      "ĠcÃ´": 936,
      "Ġá»©ng": 937,
      "Ġto": 938,
      "ĠluáºŃt": 939,
      "iáº¿u": 940,
      "Ãłu": 941,
      "Ġgá»ĵm": 942,
      "Ġbu": 943,
      "ĠgiÃºp": 944,
      "á»ķng": 945,
      "Ġtá»Ń": 946,
      "ph": 947,
      "Ġbiá»ĩt": 948,
      "á»įc": 949,
      "ĠnghÄ©": 950,
      "ĠvÃ¹ng": 951,
      "Ph": 952,
      "ĠchÆ°a": 953,
      "Ġtruyá»ģn": 954,
      "ter": 955,
      "Ġthiáº¿t": 956,
      "Ġcá»©u": 957,
      "Ġnhau": 958,
      "ing": 959,
      "Ġquáº£n": 960,
      "ĠÄĳÆ°a": 961,
      "Ġbá»Łi": 962,
      "ĠxÃ¢y": 963,
      "Ġbiáº¿n": 964,
      "ĠgiÃ¡o": 965,
      "ot": 966,
      "Ġta": 967,
      "ĠdÃ¹ng": 968,
      "ĠÄĳáº·c": 969,
      "Ġká»³": 970,
      "á»Ľ": 971,
      "ĠsÃ¡ch": 972,
      "«a": 973,
      "/201": 974,
      "Ġxá»Ń": 975,
      "Ã¬m": 976,
      "Ġkiá»ĥm": 977,
      "Ġ0": 978,
      "ĠbÃ¡n": 979,
      "áº³ng": 980,
      "Ġbá»ĳ": 981,
      "Ġcáº£m": 982,
      "ĠngoÃłi": 983,
      "Ġmáº¡nh": 984,
      "Ġlo": 985,
      "Ġlá»ĩ": 986,
      "Ġgiá»¯a": 987,
      "Ġ12": 988,
      "ĠO": 989,
      "ĠÄĳÃ¬nh": 990,
      "ag": 991,
      "Ġphá»§": 992,
      "Ġtiáº¿t": 993,
      "ĠthuáºŃt": 994,
      "ĠgÃ¬": 995,
      "Ġkhá»ı": 996,
      "ĠphÃŃa": 997,
      "ĠlÃ£": 998,
      "ĠtrÃŃ": 999,
      "Ġtiáº¿ng": 1000,
      "ĠÄĳáº¥u": 1001,
      "tr": 1002,
      "ND": 1003,
      "ĠbÃ¬nh": 1004,
      "ĠhoÃłn": 1005,
      "Ã³m": 1006,
      "Ġbáº¥t": 1007,
      "ĠÄĳá»ģu": 1008,
      "ul": 1009,
      "Ġliá»ĩu": 1010,
      "á»³": 1011,
      "ĠbÃªn": 1012,
      "ĠcÃ¡": 1013,
      "ĠkhÃ³": 1014,
      "ĠÄĲiá»ģu": 1015,
      "Ġtá»ĳt": 1016,
      "Nh": 1017,
      "ĠCÃ¡c": 1018,
      "Ġmá»©c": 1019,
      "Ġgáº§n": 1020,
      "Ġváº¥n": 1021,
      "Ġty": 1022,
      "ĠÄĳoÃłn": 1023,
      "£i": 1024,
      "Ġphá»¥": 1025,
      "ĠNá»Ļi": 1026,
      "áº·p": 1027,
      "ĠTrong": 1028,
      "Ġkiáº¿n": 1029,
      "ec": 1030,
      "Ġgiá»Ŀ": 1031,
      "ĠsÃ¡ng": 1032,
      "Ä©nh": 1033,
      "Ġtiáº¿n": 1034,
      "Ġpháº¡m": 1035,
      "ĠthÃ¢n": 1036,
      "oÃłng": 1037,
      "ĠhÆ°á»Ľng": 1038,
      "ĠdÃłi": 1039,
      "Ġmang": 1040,
      "Ġtranh": 1041,
      "ĠxÃ©t": 1042,
      "Ġtrá»£": 1043,
      "?Ċ": 1044,
      "ĠxÃ¡c": 1045,
      "Ġthay": 1046,
      "Ġná»Ļi": 1047,
      "Ġháº¡n": 1048,
      "ĠsÆ¡": 1049,
      "Ġkáº¿": 1050,
      "Ĺi": 1051,
      "Ġtá»·": 1052,
      "Ġsá»©c": 1053,
      "áº·ng": 1054,
      "Ġchung": 1055,
      "Ġphá»¥c": 1056,
      "Ġbiá»ĥu": 1057,
      "Ġnghá»ĭ": 1058,
      "ĠtÆ°á»£ng": 1059,
      "ĠthÃªm": 1060,
      "uá»ĵn": 1061,
      "Ġvá»ĩ": 1062,
      "ĠtÃ¬m": 1063,
      "and": 1064,
      "Ġ\\": 1065,
      "ĠnÆ¡i": 1066,
      "Ġgá»įi": 1067,
      "á»«ng": 1068,
      "ĠkhÃ¡ch": 1069,
      "Ġhá»Ļ": 1070,
      "op": 1071,
      "ĠAn": 1072,
      "Ġtrang": 1073,
      "Ã³c": 1074,
      "Ġtá»ķng": 1075,
      "Ķng": 1076,
      "á»§y": 1077,
      "ĠbÃłn": 1078,
      "ĠchÃŃ": 1079,
      "ĠváºŃy": 1080,
      "Ġbiá»ĥn": 1081,
      "Ġnghá»ĩ": 1082,
      "Ġf": 1083,
      "Ġtay": 1084,
      "Ġlá»ĭch": 1085,
      "Ġthuá»ĳc": 1086,
      "Ġmá»¥c": 1087,
      "Ġmáº¹": 1088,
      "Ġsu": 1089,
      "áº¥m": 1090,
      "Ġbay": 1091,
      "Ġlá»Ŀi": 1092,
      "ĠNgh": 1093,
      "Ġ11": 1094,
      "ĠChÃŃnh": 1095,
      "ÃŃt": 1096,
      "Âł": 1097,
      "Ġkiá»ĩn": 1098,
      "ĠtráºŃn": 1099,
      "Ġbá»ı": 1100,
      "Ġviá»ĩn": 1101,
      "Ġkhiáº¿n": 1102,
      "ĠnháºŃp": 1103,
      "ĠdÆ°á»Ľi": 1104,
      "ĠÄĲáº¡i": 1105,
      "Ġcáº£nh": 1106,
      "/1": 1107,
      "ĠkÃ½": 1108,
      "ir": 1109,
      "Ġphim": 1110,
      "Ġá»": 1111,
      "ĠThá»ĭ": 1112,
      "Ġw": 1113,
      "Ġnhá»ı": 1114,
      "ĠbÃłi": 1115,
      "Ġhoáº¡ch": 1116,
      "ĠcÃ¢u": 1117,
      "á»ĳt": 1118,
      ").Ċ": 1119,
      "Ġ202": 1120,
      "ak": 1121,
      "Ã¹a": 1122,
      "ĠchuyÃªn": 1123,
      "Ġtráº¡ng": 1124,
      "ĠtÃłu": 1125,
      "Ġtá»«ng": 1126,
      ").": 1127,
      "ĠÄĳoáº¡n": 1128,
      "Ġcung": 1129,
      "ĠBÃ¬nh": 1130,
      "Ġlá»£i": 1131,
      "Ġchá»ĳng": 1132,
      "áº«u": 1133,
      "Ġdanh": 1134,
      "Ġo": 1135,
      "¡ng": 1136,
      "Ġ15": 1137,
      "ĠnghÄ©a": 1138,
      "Ġtrá»±c": 1139,
      "ĠÄĳáº¡t": 1140,
      "ĠHoa": 1141,
      "ĠâĢ": 1142,
      "ĠthÃŃch": 1143,
      "ĠkhÃŃ": 1144,
      "Ġcá»ķ": 1145,
      "ĠhÆ°á»Łng": 1146,
      "ig": 1147,
      "Ġ20": 1148,
      "Ġyáº¿u": 1149,
      "ĠÄĳáº·t": 1150,
      "Ġca": 1151,
      "ĠÄĳá»§": 1152,
      "á»¯a": 1153,
      "áº§y": 1154,
      "Ġnguá»ĵn": 1155,
      "od": 1156,
      "Ġnáº¿u": 1157,
      "ua": 1158,
      "-1": 1159,
      "Theo": 1160,
      "ĠÄĲá»©c": 1161,
      "Ġthe": 1162,
      "ĠváºŃn": 1163,
      "Ġmá»Ĺi": 1164,
      "ĠBáº¯c": 1165,
      "ov": 1166,
      "ıi": 1167,
      "ĠngÃłnh": 1168,
      "ĠÃ¡p": 1169,
      "áº¯p": 1170,
      "ĠKá»³": 1171,
      "Ġchiáº¿c": 1172,
      "Ġba": 1173,
      "Ìģ": 1174,
      "Ġmua": 1175,
      "áº¡y": 1176,
      "Äĳ": 1177,
      "Ġda": 1178,
      "Ġháº¿t": 1179,
      "Ġtá»ĭch": 1180,
      "Ġdá»¥c": 1181,
      "Ġcuá»ĳi": 1182,
      "Ġxem": 1183,
      "ap": 1184,
      "Ġ=": 1185,
      "ĠTuy": 1186,
      "ion": 1187,
      "ĠtÆ°Æ¡ng": 1188,
      "ĠÄĳÃ¡": 1189,
      "ĠbÃ³ng": 1190,
      "ĠthÆ°": 1191,
      "ĠmÃłu": 1192,
      "re": 1193,
      "ĠHá»Ļi": 1194,
      "Ġnghiá»ĩm": 1195,
      "Ã©o": 1196,
      "Ġtinh": 1197,
      "Ġthanh": 1198,
      "ĠnhÃ³m": 1199,
      "Ġvá»«a": 1200,
      "ĠÄĳá»©": 1201,
      "Ġu": 1202,
      "Ġchá»įn": 1203,
      "ĠÄĳÃ´": 1204,
      "ou": 1205,
      "Ġ199": 1206,
      "ÌĢ": 1207,
      "BND": 1208,
      "ĠmiÃªu": 1209,
      "Ġmáº¥t": 1210,
      "ĠtÆ°á»Ľng": 1211,
      "ĠMinh": 1212,
      "Ġtháº§n": 1213,
      "ĠTP": 1214,
      "ĠÃ¢m": 1215,
      "Ġminh": 1216,
      "Ġdi": 1217,
      "Ġká»ĥ": 1218,
      "ab": 1219,
      "Ġtráº£": 1220,
      "Ġgáº·p": 1221,
      "Trong": 1222,
      "ĠÄĲÃ´ng": 1223,
      "ĠTÃ¢y": 1224,
      "ĠThanh": 1225,
      "ĠTá»ķng": 1226,
      "Ġhá»Ĺ": 1227,
      "uc": 1228,
      "te": 1229,
      "Ġdung": 1230,
      "á»ĥ": 1231,
      "iá»ħ": 1232,
      "Ġkhoáº£n": 1233,
      "oc": 1234,
      "ĠlÃºc": 1235,
      "CÃ¡c": 1236,
      "ĠcÃ¢y": 1237,
      "ĠÄĳáº£m": 1238,
      "Ã¬n": 1239,
      "ĠSau": 1240,
      "Ġkháº£": 1241,
      "Ġchia": 1242,
      "ĠThÃłnh": 1243,
      "Ġbá»ķ": 1244,
      "Ġmuá»ĳn": 1245,
      "ĠchÆ¡i": 1246,
      "áº¹p": 1247,
      "................": 1248,
      "ĠmÃ¡u": 1249,
      "Æ°á»£t": 1250,
      "Ġsao": 1251,
      "áº©u": 1252,
      "av": 1253,
      "ĠĠĠĠĠĠĠĠĠĠĠĠĠĠĠĠ": 1254,
      "iá»ĩp": 1255,
      "ho": 1256,
      "ĠHáº£i": 1257,
      "iÃªng": 1258,
      "Ġnháº¡c": 1259,
      "ĠphÃ©p": 1260,
      "ĠÄĳá»Ŀi": 1261,
      "ht": 1262,
      "ĠchÆ°Æ¡ng": 1263,
      "Ġin": 1264,
      "ĠÃŃt": 1265,
      "á»ħ": 1266,
      "ent": 1267,
      "ĠChá»§": 1268,
      "ĠBan": 1269,
      "Ġmáº¡ng": 1270,
      "---": 1271,
      "Ġnáº±m": 1272,
      "ĠrÃµ": 1273,
      "Ġ30": 1274,
      "Ġrá»ĵi": 1275,
      "Ġmáº¯t": 1276,
      "ĠdÃ¹": 1277,
      "ĠÃģ": 1278,
      "áºŃm": 1279,
      "ĠháºŃu": 1280,
      "Ġtháº©m": 1281,
      "Ġchuáº©n": 1282,
      "Ġmá»Ł": 1283,
      "Ġgiáº£": 1284,
      "Ġnam": 1285,
      "áº¯m": 1286,
      "ĠlÆ°u": 1287,
      "idae": 1288,
      "ĠchÃ¢n": 1289,
      "Ġrá»Ļng": 1290,
      "-2": 1291,
      "ĠÄĳÃ³ng": 1292,
      "ĠÄĳÃºng": 1293,
      "ĠcÃ¡i": 1294,
      "ĠvÃ´": 1295,
      "Ã£i": 1296,
      "Ġtiá»ĥu": 1297,
      "ĠLu": 1298,
      "ip": 1299,
      "Ġná»ķi": 1300,
      "ĠThÃ¡i": 1301,
      "Ġcá»¥": 1302,
      "á»ģn": 1303,
      "Ġnhanh": 1304,
      "Ġxáº£y": 1305,
      "ĠgÃ³": 1306,
      "Ġtuyáº¿n": 1307,
      "Ġláº¥y": 1308,
      "Ã´m": 1309,
      "Ġa": 1310,
      "á»±a": 1311,
      "ĠnÃ´ng": 1312,
      "ĠhÃ²a": 1313,
      "Ġsang": 1314,
      "ĠnghiÃªn": 1315,
      "ĠluáºŃn": 1316,
      "ell": 1317,
      "iá»ħm": 1318,
      "ĠphiÃªn": 1319,
      "ĠlÃ£nh": 1320,
      "ĠHoÃłng": 1321,
      "Ġvá»ĳn": 1322,
      "Ġphong": 1323,
      "Ġnguy": 1324,
      "Ġmá»įi": 1325,
      "ĠLan": 1326,
      "ra": 1327,
      "amp": 1328,
      "uÃ´i": 1329,
      "Ġvá»£": 1330,
      "ĠtrÃ²": 1331,
      "ĠNháºŃt": 1332,
      "á»Ľi": 1333,
      "Ġkháº©u": 1334,
      "ĠSÆ¡n": 1335,
      "ĠNhÃł": 1336,
      "Ã¢ng": 1337,
      "Ġcá»ĳ": 1338,
      "Ġtá»Ļi": 1339,
      "ĠPhÃ¡p": 1340,
      "Ġchá»©": 1341,
      "ĠÄĳáº£o": 1342,
      "¦y": 1343,
      "ĠÃĶng": 1344,
      "ill": 1345,
      "ĠUBND": 1346,
      "ĠMá»Ļt": 1347,
      "Ġdu": 1348,
      "Ġghi": 1349,
      "Ġpháº£n": 1350,
      "ĠtrÃ¡ch": 1351,
      "Ġngay": 1352,
      "ine": 1353,
      "Ġtáº¥n": 1354,
      "áº¡p": 1355,
      "ĠmÃ´i": 1356,
      "Ãłm": 1357,
      "¯u": 1358,
      "Ġcá»Ļng": 1359,
      "ĠÄĳÃ´ng": 1360,
      "Ġvai": 1361,
      "NH": 1362,
      "Ġtuáº§n": 1363,
      "ĠdÆ°á»¡ng": 1364,
      "ĠquáºŃn": 1365,
      "ĠDÆ°Æ¡ng": 1366,
      "ĠsÃ¢n": 1367,
      "/202": 1368,
      "Ġsáº¯c": 1369,
      "ĠÄĳa": 1370,
      "ens": 1371,
      "ĠvÃłng": 1372,
      "Ġá»¦y": 1373,
      "ĠchÃ¢u": 1374,
      "Ì£": 1375,
      "áº©y": 1376,
      "Ġ17": 1377,
      "Ġhá»ıi": 1378,
      "ĠchÃ¡": 1379,
      "Ġcá»Ńa": 1380,
      "ÃŃn": 1381,
      "Ġ14": 1382,
      "Ġhá»¯u": 1383,
      "Ġchá»ĵng": 1384,
      "oi": 1385,
      "Ġká»¹": 1386,
      "Ġtáº¥t": 1387,
      "Ġxuá»ĳng": 1388,
      "ĠÄĳá»Ļc": 1389,
      "Ġnhiá»ħm": 1390,
      "TT": 1391,
      "-t": 1392,
      "ĠNga": 1393,
      "Ġchuyá»ĩn": 1394,
      "Ġ+": 1395,
      "Ãºi": 1396,
      "uyá»ĩt": 1397,
      "Ġ13": 1398,
      "ĠbÃ©": 1399,
      "Kh": 1400,
      "Ġkhá»ıe": 1401,
      "ok": 1402,
      "ĠLiÃªn": 1403,
      "ĠbÃ¡c": 1404,
      "ĠmÃ¹a": 1405,
      "ĠtrÃ¡i": 1406,
      "ow": 1407,
      "Ġ16": 1408,
      "Ġtá»ĳi": 1409,
      "Ġviáº¿t": 1410,
      "ie": 1411,
      "Ã£o": 1412,
      "ĠvÃ²ng": 1413,
      "ĠcÃ¡nh": 1414,
      "Ġcáº¡nh": 1415,
      "Ġká»·": 1416,
      "ĠBáº£n": 1417,
      "ĠSá»Ł": 1418,
      "Ġcháº¥p": 1419,
      "Ġnáº¡n": 1420,
      "Ġcá»Ń": 1421,
      "Ġcháº¿t": 1422,
      "Ġtháº¯ng": 1423,
      "ĠgiÃ¡m": 1424,
      "ĠÄĳau": 1425,
      "ĠTráº§n": 1426,
      "ĠThá»§": 1427,
      "ĳng": 1428,
      "iáº¿m": 1429,
      "ne": 1430,
      "Ġhuy": 1431,
      "Ġchá»ĭu": 1432,
      "áº¿p": 1433,
      "Ġnháº±m": 1434,
      "Ġsung": 1435,
      "ĠkÃŃch": 1436,
      "iv": 1437,
      "ob": 1438,
      "ĠTheo": 1439,
      "á»ĭp": 1440,
      "Ġcá»±c": 1441,
      "Ã£n": 1442,
      "Ġlao": 1443,
      "Ġphá»ĳi": 1444,
      "Ġhá»ĵi": 1445,
      "ĠcÆ°": 1446,
      "Ġkhá»ıi": 1447,
      "ĠÄĳáº¹p": 1448,
      "Ġdáº¡ng": 1449,
      "NG": 1450,
      "ĠgÃ¡i": 1451,
      "ĠLÃª": 1452,
      "Ġ198": 1453,
      "Ġcáº£i": 1454,
      "ĠÄĳÄĥng": 1455,
      "SD": 1456,
      "Ġthiáº¿u": 1457,
      "Ġáº¥y": 1458,
      "ĠsoÃ¡t": 1459,
      "Ġháº¡i": 1460,
      "Ġchiá»ģu": 1461,
      "ĠÄĳá»ĳc": 1462,
      "Ġnáº·ng": 1463,
      "ĠchÃº": 1464,
      "Ġlá»Ľp": 1465,
      "įng": 1466,
      "...Ċ": 1467,
      "Ġná»¯a": 1468,
      "ĠnuÃ´i": 1469,
      "ard": 1470,
      "ĠngÃ¢n": 1471,
      "Ġtháº¥p": 1472,
      "Ġngoáº¡i": 1473,
      "ĠphÃ¹": 1474,
      "ĠNÄĥm": 1475,
      "ĠDo": 1476,
      "ut": 1477,
      "ĠKhi": 1478,
      "ĠtuyÃªn": 1479,
      "if": 1480,
      "Ġuá»ĳng": 1481,
      "ĠluÃ´n": 1482,
      "og": 1483,
      "ĠhÃ£": 1484,
      "ĠcÄĥn": 1485,
      "ĠbÃło": 1486,
      "Ġgiá»ĳng": 1487,
      "uÃ¢n": 1488,
      "est": 1489,
      "ĠtÃ²a": 1490,
      "ĠÄĳáº§y": 1491,
      "ĠÄĲáº£ng": 1492,
      "ĠHá»ĵ": 1493,
      "Ġmáº¡ch": 1494,
      "ĠnÃ¢ng": 1495,
      "Ġgiai": 1496,
      "Ġthai": 1497,
      "ĠThu": 1498,
      "ĠsÃ´ng": 1499,
      "ĠhÃ´n": 1500,
      "ĠÄĳÃ¡ng": 1501,
      "one": 1502,
      "Ġnhiá»ĩt": 1503,
      "ĠphÃ¡": 1504,
      "Ġdá»ħ": 1505,
      "áºµ": 1506,
      "ĠkhÄĥn": 1507,
      "Ġmáº«u": 1508,
      "ĠbiÃªn": 1509,
      "Ġpháº¡t": 1510,
      "ĠriÃªng": 1511,
      "ĠgÃ³p": 1512,
      "Ġ{": 1513,
      "st": 1514,
      "ıa": 1515,
      "ist": 1516,
      "ĠcÃłng": 1517,
      "ĠhÃ¡t": 1518,
      "ĠkÃ©o": 1519,
      "ĠtoÃ¡n": 1520,
      "ĠlÄ©nh": 1521,
      "Ġ25": 1522,
      "HC": 1523,
      "CÃ¢u": 1524,
      "Ġtho": 1525,
      "ĠNÃ³": 1526,
      "ĠLuáºŃt": 1527,
      "Ġtá»Ļc": 1528,
      "ik": 1529,
      "ĠLong": 1530,
      "ry": 1531,
      "Ġthiá»ĩn": 1532,
      "á»Ĺi": 1533,
      "ian": 1534,
      "19": 1535,
      "ew": 1536,
      "Ġchiáº¿m": 1537,
      "Ġcháº¡y": 1538,
      "ace": 1539,
      "ft": 1540,
      "Ġáº": 1541,
      "ĠthuáºŃn": 1542,
      "Ġtrai": 1543,
      "ĠÄĲá»ĵng": 1544,
      "Ãºy": 1545,
      "yl": 1546,
      "all": 1547,
      "ĠniÃªn": 1548,
      "km": 1549,
      "ce": 1550,
      "ĠtrÃ¬": 1551,
      "ĠNghá»ĭ": 1552,
      "ĠkÃª": 1553,
      "ĠIn": 1554,
      "Sau": 1555,
      "ex": 1556,
      "ĠcÆ°á»Ŀng": 1557,
      "Ġma": 1558,
      "á»Ńi": 1559,
      "á»§ng": 1560,
      "ĠPhÃ³": 1561,
      "Ġthá»§y": 1562,
      "Ġduy": 1563,
      "ĠmÃ´n": 1564,
      "Ġ197": 1565,
      "Ġtáº£i": 1566,
      "Ġtuyá»ĥn": 1567,
      "ĠNhá»¯ng": 1568,
      "ĠUSD": 1569,
      "Ġdáº¥u": 1570,
      "uáº¥n": 1571,
      "Ġháº¡": 1572,
      "ĠÄĳá»©ng": 1573,
      "rig": 1574,
      "NgÃły": 1575,
      "Ġnhu": 1576,
      "}}": 1577,
      "Ġtháº£o": 1578,
      "ĠtÆ°á»Łng": 1579,
      "Ġná»ģn": 1580,
      "ĠAl": 1581,
      "Ã³n": 1582,
      "Ġlá»Ļ": 1583,
      "ĠkhÃ¡ng": 1584,
      "ĠthÃºc": 1585,
      "II": 1586,
      "Ġtai": 1587,
      "Ġkhá»Łi": 1588,
      "ĠviÃªm": 1589,
      "30": 1590,
      "Má»Ļt": 1591,
      "Ġláº¡c": 1592,
      "ran": 1593,
      "ĠTrÆ°á»Ŀng": 1594,
      "ĠxuyÃªn": 1595,
      "Ġmiá»ģn": 1596,
      "ĠlÃ²ng": 1597,
      "Ġchá»©a": 1598,
      "ĠTH": 1599,
      "ĠÃĤ": 1600,
      "Gi": 1601,
      "Ġsuáº¥t": 1602,
      "ich": 1603,
      "ĠtÃ¹": 1604,
      "Ġháº¡ng": 1605,
      "ĠÄĳáº©y": 1606,
      "ĠsÆ°": 1607,
      "Ġmáº¡i": 1608,
      "Ìī": 1609,
      "ĠMar": 1610,
      "Ġhiá»ĥm": 1611,
      "Ġhiá»ĥu": 1612,
      "10": 1613,
      "ĠÃ´": 1614,
      "ĠâĢĵ": 1615,
      "ĠkhÃ¡m": 1616,
      "Ġbinh": 1617,
      "ĠHÃ²a": 1618,
      "ĠvÃłi": 1619,
      "ĠlÃ¢u": 1620,
      "Ġ24": 1621,
      "ĠsÃ¢u": 1622,
      "ĠthÃ´n": 1623,
      "ĠÄĳÃ´i": 1624,
      "qu": 1625,
      "Ġai": 1626,
      "Ġthoáº¡i": 1627,
      "Ġlá»ħ": 1628,
      "ĠnhÃ¬n": 1629,
      "Ġá»§y": 1630,
      "ĠÄĳÃłn": 1631,
      "ev": 1632,
      "Ġmáº¯c": 1633,
      "Ġbang": 1634,
      "ers": 1635,
      "50": 1636,
      "Ġof": 1637,
      "ĠngÃ´i": 1638,
      "ĠxÃºc": 1639,
      "Ġvu": 1640,
      "Ġdáº§u": 1641,
      "Ġphá»ķ": 1642,
      "ĠCÃ³": 1643,
      "Ġ01": 1644,
      "Æ°á»Ľi": 1645,
      "á»ĭnh": 1646,
      "Ġ22": 1647,
      "ĠÄĳÃªm": 1648,
      "eg": 1649,
      "ĠkhÃ¡": 1650,
      "ep": 1651,
      "Ġgá»Ńi": 1652,
      "ÄĲ-": 1653,
      "ĠnghiÃªm": 1654,
      "Ġsuy": 1655,
      "Ġgá»ĳc": 1656,
      "Ġtá»©": 1657,
      "Ġngá»¯": 1658,
      "Ã¨o": 1659,
      "ĠKhÃ´ng": 1660,
      "ĠNguyÃªn": 1661,
      "Ġthá»¥": 1662,
      "á»Ľm": 1663,
      "Ġbáº§u": 1664,
      "ĠChÃ¢u": 1665,
      "ĠNáº¿u": 1666,
      "Ġgiáº¥y": 1667,
      "ĠtrÃ¹ng": 1668,
      "ĠcÃ¢n": 1669,
      "Ġháº¡t": 1670,
      "ĠcÃ¡n": 1671,
      "ĠQuáº£ng": 1672,
      "ĠÄĳá»į": 1673,
      "right": 1674,
      "ĠtrÃ¡nh": 1675,
      "Ã¹i": 1676,
      "Ġá»ķ": 1677,
      "Ġxáº¿p": 1678,
      "ub": 1679,
      "ĠphÃºt": 1680,
      "Ġcáº¥u": 1681,
      "áº§ng": 1682,
      "NÄĥm": 1683,
      "ach": 1684,
      "ĠvÅ©": 1685,
      "Ġ100": 1686,
      "ĠÄĲÃ¢y": 1687,
      "Ġsá»Ľm": 1688,
      "Ġxa": 1689,
      "ĠthÃ¡i": 1690,
      "Ġxin": 1691,
      "Ġngá»§": 1692,
      "Ġtim": 1693,
      "ĠÆ°Æ¡ng": 1694,
      "Ġsáº»": 1695,
      "ĠÄĳá»įc": 1696,
      "Ġ194": 1697,
      "Ġthá»Ń": 1698,
      "Ġal": 1699,
      "ton": 1700,
      "ĠgiÃ¡c": 1701,
      "ĠTá»ķ": 1702,
      "ĠGiang": 1703,
      "ĠdÃłnh": 1704,
      "Ġchá»īnh": 1705,
      "ĠphÃ³ng": 1706,
      "ĠNgá»įc": 1707,
      "ĠmáºŃt": 1708,
      "-s": 1709,
      "ĠNgÆ°á»Ŀi": 1710,
      "ĠÄĳÃło": 1711,
      "á»«a": 1712,
      "Ġkhá»ĳi": 1713,
      "ĠtháºŃt": 1714,
      "Ġcá»©ng": 1715,
      "ĠThÃ´ng": 1716,
      "Ġ&": 1717,
      "ĠÄĳÃ¡p": 1718,
      "áº·n": 1719,
      "Ġand": 1720,
      "ĠbÆ°á»Ľc": 1721,
      "Ã©m": 1722,
      "Ġtháº¥t": 1723,
      "Ġtrao": 1724,
      "ĠZ": 1725,
      "ĠXuÃ¢n": 1726,
      "Qu": 1727,
      "ĠphÃª": 1728,
      "Ġ196": 1729,
      "ĠtÃŃn": 1730,
      "Ġhuyáº¿t": 1731,
      "Ġtiá»ĩn": 1732,
      "ĠthÆ¡": 1733,
      "á»£i": 1734,
      "Ġnháº¹": 1735,
      "ĠtÃ¡i": 1736,
      "ĠBa": 1737,
      "ĠTá»«": 1738,
      "Ġsá»Ńa": 1739,
      "kh": 1740,
      "Ġ*": 1741,
      "Ġquanh": 1742,
      "Ġnghá»ģ": 1743,
      "ant": 1744,
      "Ġtráº¥n": 1745,
      "á»¥ng": 1746,
      "Ġtáº§ng": 1747,
      "rac": 1748,
      "eb": 1749,
      "ĠAr": 1750,
      ".Ġ(": 1751,
      "up": 1752,
      "Ġtá»ĵ": 1753,
      "iá»ģm": 1754,
      "Ġbuá»ķi": 1755,
      "ĠdÃ²ng": 1756,
      "Ġ21": 1757,
      "a\"": 1758,
      "Ġvá»įng": 1759,
      "ĠvÆ°á»£t": 1760,
      "Ġtá»ĳc": 1761,
      "Ġquay": 1762,
      "ĠTÃ¢n": 1763,
      "Ġxanh": 1764,
      "Ġthuáº¿": 1765,
      "ĠTÃ²a": 1766,
      "ud": 1767,
      "ĠDÃ¢n": 1768,
      "ĠÄĳá»ı": 1769,
      "Ġly": 1770,
      "ain": 1771,
      "lin": 1772,
      "ib": 1773,
      "Ġ'": 1774,
      "Ġbuá»Ļc": 1775,
      "Ġlá»Ńa": 1776,
      "ĠthiÃªn": 1777,
      "ĠÃĤu": 1778,
      "ĠhÃ´m": 1779,
      "ĠNinh": 1780,
      "end": 1781,
      "ĠÄĳoÃ¡n": 1782,
      "Ġtráº¯ng": 1783,
      "Ġsai": 1784,
      "io": 1785,
      "ĠcáºŃn": 1786,
      "Ġcan": 1787,
      "Ġmáº·c": 1788,
      "Ġloáº¡n": 1789,
      "ĠlÃ¡": 1790,
      "ĠHá»ĵng": 1791,
      "ina": 1792,
      "ĠchÄĥm": 1793,
      "ly": 1794,
      "ĠthÄĥm": 1795,
      "ĠhoÃłng": 1796,
      "á»¡": 1797,
      "Ġcha": 1798,
      "Ġgh": 1799,
      "Ġchá»¯a": 1800,
      "Ġná»£": 1801,
      "Ġ50": 1802,
      "ĠrÄĥng": 1803,
      "Ġluyá»ĩn": 1804,
      "Ġ23": 1805,
      "ĠVÃ¬": 1806,
      "ĠPhÃ²ng": 1807,
      "ĠBá»ĩnh": 1808,
      "ÃĶng": 1809,
      "Ġtá»©c": 1810,
      "Ġbiá»ĩn": 1811,
      "12": 1812,
      "ĠdÆ°Æ¡ng": 1813,
      "ĠphÆ°á»Ŀng": 1814,
      "Ġtáº¡m": 1815,
      "our": 1816,
      "Ġ2015": 1817,
      "ĠĠĠĠĠĠĠĠĠĠĠĠĠĠĠĠĠĠĠĠĠĠĠĠĠĠĠĠĠĠĠĠ": 1818,
      "ess": 1819,
      "ĠgiÃłnh": 1820,
      "ĠtrÃº": 1821,
      "ĠthÆ°á»Łng": 1822,
      "ah": 1823,
      "Ġquáº§n": 1824,
      "ĠVÅ©": 1825,
      "ĠPhÃº": 1826,
      "Ġtá»ĵn": 1827,
      "art": 1828,
      "Ġná»ĳi": 1829,
      "ĠLe": 1830,
      "Ġrá»«ng": 1831,
      "ĠSt": 1832,
      "ĠnÃºi": 1833,
      "ĠhÃºt": 1834,
      "ost": 1835,
      "ĠchÃ¡u": 1836,
      "Ġru": 1837,
      "ĠHu": 1838,
      "ĠQuÃ¢n": 1839,
      "ĠKim": 1840,
      "Ġmá»ĳi": 1841,
      ".)Ċ": 1842,
      "ĠHÃłn": 1843,
      "Ġ2010": 1844,
      "ĠCÆ¡": 1845,
      "ĠtÃºy": 1846,
      "Ġnghe": 1847,
      "á»Ļp": 1848,
      "ĠlÃłng": 1849,
      "ĠTháº¿": 1850,
      "ĠpháºŃn": 1851,
      "Ä©a": 1852,
      "Ġháº¥p": 1853,
      "ĠNgoÃłi": 1854,
      "iáº¿ng": 1855,
      "ĠGiÃ¡m": 1856,
      "Ġbáº¯c": 1857,
      "âĢĵ": 1858,
      "yp": 1859,
      "-d": 1860,
      "Ġchá»Ĺ": 1861,
      "Ġbáº£ng": 1862,
      "PhÆ°Æ¡ng": 1863,
      "Ġthuyáº¿t": 1864,
      "Ġchá»¯": 1865,
      "az": 1866,
      "Ġ\"T": 1867,
      "ĠQuyáº¿t": 1868,
      "ĠChÃŃ": 1869,
      "ĠQuang": 1870,
      "Ġlá»ĩnh": 1871,
      "ĠngÄĥn": 1872,
      "----": 1873,
      "Ġnghi": 1874,
      "yr": 1875,
      "ĠbÃły": 1876,
      "Ã¨m": 1877,
      "ĠTÃłi": 1878,
      "Ãµi": 1879,
      "ĠCá»Ļng": 1880,
      "Ġtháº³ng": 1881,
      "Ġ28": 1882,
      "amp;": 1883,
      "Ġáº¤": 1884,
      "Lá»Ŀi": 1885,
      "ĠNhÆ°ng": 1886,
      "amin": 1887,
      "se": 1888,
      "ĠVá»ģ": 1889,
      "Ġ27": 1890,
      "20": 1891,
      "ĠÄĲá»Ļ": 1892,
      "ord": 1893,
      "ĠPháº¡m": 1894,
      "Ġngá»Ŀ": 1895,
      "ium": 1896,
      "Ġcoi": 1897,
      "Ġbá»©c": 1898,
      "ĠtÃ¢y": 1899,
      "Ġkiáº¿m": 1900,
      "ĠTiÃªn": 1901,
      "Ġá»ķn": 1902,
      "Ġháº§u": 1903,
      "ĠÃŃch": 1904,
      "ue": 1905,
      "Nhá»¯ng": 1906,
      "Ġphiáº¿u": 1907,
      "CP": 1908,
      "Ġ,": 1909,
      "ĠÃ¡o": 1910,
      "Ġcáº¯t": 1911,
      "Ġtrá»Ŀi": 1912,
      "aw": 1913,
      "oh": 1914,
      "Ġ26": 1915,
      "Ġtá»ı": 1916,
      "ĠsÃ³c": 1917,
      "Ġthá»«a": 1918,
      "ĠmÆ°a": 1919,
      "Táº¡i": 1920,
      "Ġ2018": 1921,
      "{{": 1922,
      "inm": 1923,
      "ĠtÃ´": 1924,
      "Ġhá»įp": 1925,
      "ĠÄĳÃŃch": 1926,
      "Ġsá»¯a": 1927,
      "co": 1928,
      "ĠÄĳá»Ļt": 1929,
      "Ġ\"C": 1930,
      "ĠÄĳá»ĭch": 1931,
      "iáº¿p": 1932,
      "Ġkháº³ng": 1933,
      "Ġtrá»ĵng": 1934,
      "ĠquÃ½": 1935,
      "Ġ&amp;": 1936,
      "ĠNgÃły": 1937,
      "Ġvua": 1938,
      "com": 1939,
      "Ġtáº¯c": 1940,
      "ĠrÃºt": 1941,
      "ĠÆ°á»Ľc": 1942,
      "Ġlá»¥c": 1943,
      "ĠNew": 1944,
      "Ġtrá»¥": 1945,
      "Ġ2017": 1946,
      "Ġnghá»ī": 1947,
      "Ġkim": 1948,
      "Ġcá»¥c": 1949,
      "Ġdá»¯": 1950,
      "á»įt": 1951,
      "ĠSh": 1952,
      "Ġthá»ĭt": 1953,
      "ĠcáºŃp": 1954,
      "Ġvay": 1955,
      "ĠPhÆ°Æ¡ng": 1956,
      "frac": 1957,
      "ĠphÃºc": 1958,
      "Ġkháº¯c": 1959,
      "Ġngáº¯n": 1960,
      "ĠÄĳen": 1961,
      "á»¥p": 1962,
      "ĠCH": 1963,
      "ey": 1964,
      "ĠLa": 1965,
      "ģm": 1966,
      "ĠCá»¥c": 1967,
      "Ġ2020": 1968,
      "Ġbáº¡i": 1969,
      "ber": 1970,
      "ĠBáº£o": 1971,
      "ĠgiÃ¡p": 1972,
      "ĠBÃł": 1973,
      "Å©i": 1974,
      "ĠthÃŃ": 1975,
      "Ġlá»±a": 1976,
      "14": 1977,
      "................................": 1978,
      "Ġ2016": 1979,
      "ĠNhÃ¢n": 1980,
      "Ġsau:": 1981,
      "ĠChÃºng": 1982,
      "Ġdá»ĭ": 1983,
      "Ġvui": 1984,
      "ĠVÆ°Æ¡ng": 1985,
      "ĠÃ¡nh": 1986,
      "Ġphi": 1987,
      "ĠTáº¡i": 1988,
      "ĠLÃ½": 1989,
      "18": 1990,
      "Ġháº£i": 1991,
      "Ġdá»±a": 1992,
      "Ġgáº¯n": 1993,
      "ass": 1994,
      "tin": 1995,
      "ĠÄĳá»ĵng/": 1996,
      "ĠKinh": 1997,
      "Ġkháº£o": 1998,
      "Ġáº¤n": 1999,
      "Ġ2019": 2000,
      "Ã¨n": 2001,
      "ĠÄĳÆ°Æ¡ng": 2002,
      "HCM": 2003,
      "Ġnhá»Ŀ": 2004,
      "ĠthÃ¡c": 2005,
      "ĠViá»ĩn": 2006,
      "ĠdÃ¢y": 2007,
      "áº¢": 2008,
      "ore": 2009,
      "Ã²i": 2010,
      "ĠNha": 2011,
      "Ġtruy": 2012,
      "ort": 2013,
      "-19": 2014,
      "Ġtiáº¿t:": 2015,
      "Ġmiá»ħn": 2016,
      "Ġthao": 2017,
      "ĠÆ°u": 2018,
      "ff": 2019,
      "Ġxung": 2020,
      "ĠBr": 2021,
      "ĠChá»ī": 2022,
      "Ã£y": 2023,
      "Ġtá»¥ng": 2024,
      "ĠtrÃºc": 2025,
      "left": 2026,
      "sk": 2027,
      "ĠchÃ³ng": 2028,
      "NgÆ°á»Ŀi": 2029,
      "Ġdáº§n": 2030,
      "Ġchuyáº¿n": 2031,
      "ĠquÃ¡n": 2032,
      "Ġ\\right": 2033,
      "Â²": 2034,
      "15": 2035,
      "Ġniá»ĩm": 2036,
      "ww": 2037,
      "ast": 2038,
      "Ġnhá»Ľ": 2039,
      "ensis": 2040,
      "ĠnÃ³ng": 2041,
      "iet": 2042,
      "ĠtháºŃn": 2043,
      "ĠTÆ°": 2044,
      "Ġná»Ļp": 2045,
      "ĠYÃªn": 2046,
      "áºµn": 2047,
      "Ġ29": 2048,
      "Ġninh": 2049,
      "ii": 2050,
      "inmec": 2051,
      "Ġrá»ĳi": 2052,
      "Ġ195": 2053,
      "Ġsong": 2054,
      "man": 2055,
      "ĠsÃłng": 2056,
      "Ġ40": 2057,
      "ĠsÃ³ng": 2058,
      "Khi": 2059,
      "TV": 2060,
      "ĠsiÃªu": 2061,
      "ata": 2062,
      "Ġloáº¡t": 2063,
      "ĠnÃ£o": 2064,
      "ĠlÆ°á»£t": 2065,
      "/N": 2066,
      "á»ĭa": 2067,
      "Ġmong": 2068,
      "\\\\": 2069,
      "ĠcÅ©": 2070,
      "á»īnh": 2071,
      "Ġcháº³ng": 2072,
      "Ġbá»¥ng": 2073,
      "-k": 2074,
      "ĠxÆ°Æ¡ng": 2075,
      "Ġcáº§m": 2076,
      "/Q": 2077,
      "Æ°Æ¡i": 2078,
      "TrÆ°á»Ľc": 2079,
      "ĠtrÄĥm": 2080,
      "oan": 2081,
      "Ġ2011": 2082,
      "Ġcháº£y": 2083,
      "ĠGiÃ¡o": 2084,
      "Ġmá»ģm": 2085,
      "Ã³i": 2086,
      "ĠdÃµi": 2087,
      "ĠchÃ¡y": 2088,
      "ĠTÃ´i": 2089,
      "Ġká»ĭp": 2090,
      "Ġgiáº£i:": 2091,
      "Ġvong": 2092,
      "Ġliá»ĩt": 2093,
      "Ãºa": 2094,
      "ĠHy": 2095,
      "son": 2096,
      "Æ°á»¡ng": 2097,
      "ÄĲT": 2098,
      "Ġdinh": 2099,
      "ĠlÆ°á»£c": 2100,
      "ĠChi": 2101,
      "Ġ:": 2102,
      "ation": 2103,
      "Ġsuá»ĳt": 2104,
      "ĠkÃ¨m": 2105,
      "ĠkhÃ³a": 2106,
      "ĠtÃ´n": 2107,
      "ĠâĢľ": 2108,
      "ĠvÆ°Æ¡ng": 2109,
      "11": 2110,
      "ÃĢ": 2111,
      "aceae": 2112,
      "KhÃ´ng": 2113,
      "ĠPar": 2114,
      "Ġcam": 2115,
      "ĠÄĲÃł": 2116,
      "ıng": 2117,
      "Ġsáº¡ch": 2118,
      "/12": 2119,
      "ÃĤ": 2120,
      "ĠthuÃª": 2121,
      "Ġtá»Ŀ": 2122,
      "Ġlai": 2123,
      "Ġ\"B": 2124,
      "Ġcháº¯c": 2125,
      "Ġ\"S": 2126,
      "Ġkhuáº©n": 2127,
      "ĠTá»": 2128,
      "Æ°á»Ŀn": 2129,
      "ideo": 2130,
      "Ġtá»ķn": 2131,
      "ĠCon": 2132,
      "ĠPhi": 2133,
      "und": 2134,
      "Ġhá»įa": 2135,
      "ĠChiáº¿n": 2136,
      "Ġtáº§m": 2137,
      "Ġtrá»©ng": 2138,
      "Ã¡u": 2139,
      "Ġ2014": 2140,
      "ĠNgÃ¢n": 2141,
      "Ġtrá»«": 2142,
      "Ġbá»į": 2143,
      "âĢĿ": 2144,
      "ack": 2145,
      "ĠngÃ´n": 2146,
      "ĠlÆ°Æ¡ng": 2147,
      "ĠlÃ£i": 2148,
      "uá»Ļc": 2149,
      "Ġthá»ıa": 2150,
      "ĠhÃłm": 2151,
      "Ġsáºµn": 2152,
      "ĠhÃ£ng": 2153,
      "Ġtáº¡p": 2154,
      "Ġhá»§y": 2155,
      "ĠtháºŃp": 2156,
      "ĠkhÃºc": 2157,
      "itamin": 2158,
      "17": 2159,
      "Ġvá»¯": 2160,
      "Æ¯": 2161,
      "Ġ/": 2162,
      "bum": 2163,
      "ĠHiá»ĩp": 2164,
      "ĠVá»Ľi": 2165,
      "ĠGia": 2166,
      "ond": 2167,
      "uk": 2168,
      "Ã¡y": 2169,
      "ĠCao": 2170,
      "row": 2171,
      "-3": 2172,
      "ĠthÃº": 2173,
      "ĠVÃło": 2174,
      "ĠLÃ¢m": 2175,
      "ĠkÃŃnh": 2176,
      "Ġchiáº¿u": 2177,
      "Ġ31": 2178,
      "ĠnghÃ¨o": 2179,
      "ĠTriá»ģu": 2180,
      "ĠViá»ĩc": 2181,
      "Ġsáº¯t": 2182,
      "Ġ\"Th": 2183,
      "ĠlÃ¢m": 2184,
      "ĠMai": 2185,
      "Ġbá»Ŀ": 2186,
      "ĠmÃ£": 2187,
      "Ġquen": 2188,
      "á»Ļn": 2189,
      "Ġ\"c": 2190,
      "Ġ\"H": 2191,
      "Ġbáº¡c": 2192,
      "Ġung": 2193,
      "Ġpháº«u": 2194,
      "ĠThÆ°Æ¡ng": 2195,
      "á»©t": 2196,
      "Ġá»ĳng": 2197,
      "Ġthiá»ĩt": 2198,
      "Tá»«": 2199,
      "VÃło": 2200,
      "ĠmÃ³n": 2201,
      "Ġláº¡nh": 2202,
      "Tuy": 2203,
      "ĠThiÃªn": 2204,
      "Ġtráº£i": 2205,
      "i/": 2206,
      "ĠCÃ´": 2207,
      "Ġduyá»ĩt": 2208,
      "Ġthá»ķ": 2209,
      "ĠhÆ¡i": 2210,
      "Ġis": 2211,
      "ĠNhÄ©": 2212,
      "uá»ķi": 2213,
      "á»¥y": 2214,
      "Ġbáº¯n": 2215,
      "16": 2216,
      "ĠhÃ£y": 2217,
      "iz": 2218,
      "Ġláº½": 2219,
      "ĠnÃªu": 2220,
      "Ġpro": 2221,
      "are": 2222,
      "13": 2223,
      "-b": 2224,
      "ath": 2225,
      "ĠbÃ¡nh": 2226,
      "AN": 2227,
      "ÄĲiá»ģu": 2228,
      "ate": 2229,
      "«ng": 2230,
      "ta": 2231,
      "ĠThe": 2232,
      "23": 2233,
      "Ġvá»¯ng": 2234,
      "ĠtháºŃm": 2235,
      "Ġco": 2236,
      "ĠII": 2237,
      "Ġtuy": 2238,
      "Ġgiáº¿t": 2239,
      "Ġváº»": 2240,
      "ĠmÅ©i": 2241,
      "Ġkiá»ĥu": 2242,
      "Ġgiáº£n": 2243,
      "oy": 2244,
      "ĠThá»ķ": 2245,
      "Ġtháº£i": 2246,
      "ĠHá»": 2247,
      "iá»ĩng": 2248,
      "ĠbÄĥng": 2249,
      "Ġtáº·ng": 2250,
      "Ġ\"M": 2251,
      "ĠthoÃ¡t": 2252,
      "ĠÄĳáº¿": 2253,
      "ide": 2254,
      "Ġdáº¡y": 2255,
      "'s": 2256,
      "}{": 2257,
      "ĠHá»į": 2258,
      "ĠKhu": 2259,
      "ĠcháºŃm": 2260,
      "Ġla": 2261,
      "XÃ£": 2262,
      "ind": 2263,
      "25": 2264,
      "Ġtrá»¯": 2265,
      "ĠGiáº£i": 2266,
      "CÃ³": 2267,
      "Ġá»§ng": 2268,
      "ug": 2269,
      "xy": 2270,
      "Ã³t": 2271,
      "Ġ193": 2272,
      "ĠPhÃ¡t": 2273,
      "ern": 2274,
      "Ġ\"Äĳ": 2275,
      "ĠquÃª": 2276,
      "Ġmiá»ĩng": 2277,
      "Ġná»ķ": 2278,
      "ĠnhÆ°:": 2279,
      "/3": 2280,
      "/th": 2281,
      "ĠnháºŃt": 2282,
      "ĠÄĲá»ĳi": 2283,
      "ĠÄĲáº¿n": 2284,
      "Ġ2021": 2285,
      "Ġáº¥n": 2286,
      "Ġmáº¡c": 2287,
      "á»Ľp": 2288,
      "ĠÄĲÃło": 2289,
      "áºµng": 2290,
      "ĠHai": 2291,
      "ĠmÃłn": 2292,
      "ĠkÃ©m": 2293,
      "áº¹n": 2294,
      "Ġcháº·t": 2295,
      "ĠHiá»ĩn": 2296,
      "Ġváº¿t": 2297,
      "ĠhÆ°Æ¡ng": 2298,
      "Ãģ": 2299,
      "Ġkhuyáº¿n": 2300,
      "ĠÄĳáº£ng": 2301,
      "ĠLinh": 2302,
      "40": 2303,
      "Bá»Ļ": 2304,
      "ĠThÆ°á»Ŀng": 2305,
      "ans": 2306,
      "Ġchá»¥p": 2307,
      "Ġ2013": 2308,
      "Ġthá»Ł": 2309,
      "ĠÄĳÃ¢u": 2310,
      "era": 2311,
      "TC": 2312,
      "Ġngá»ĵi": 2313,
      "ĠTáºŃp": 2314,
      "ĠsÃºng": 2315,
      "Ġá»ŀ": 2316,
      "Ġtuyá»ĩt": 2317,
      "ĠTuáº¥n": 2318,
      "ĠKhoa": 2319,
      "ĠÄĲÃ¬nh": 2320,
      "ĠkhÃ´": 2321,
      "Ġsáº¯p": 2322,
      "Ġlan": 2323,
      "PT": 2324,
      "ĠNáºµng": 2325,
      "ity": 2326,
      "Æ°á»£u": 2327,
      "ĠHÃ³a": 2328,
      "ĠbÃ£o": 2329,
      "Vá»ģ": 2330,
      "ĠHÆ°ng": 2331,
      "Ġnguyá»ĩn": 2332,
      "Ġtriá»ģu": 2333,
      "īnh": 2334,
      "ps": 2335,
      "ĠVÄ©nh": 2336,
      "e\"": 2337,
      "CÃ´ng": 2338,
      "ĠkhÃ¡n": 2339,
      "Ġbá»ĳn": 2340,
      "Ġkáº»": 2341,
      "ĠDN": 2342,
      "ĠlÃ¡i": 2343,
      "ĠcÆ¡n": 2344,
      "ĠPhÃºc": 2345,
      "ĠMÃ£": 2346,
      "á»³nh": 2347,
      "Ġ2012": 2348,
      "ĠtrÆ°ng": 2349,
      "Ġká»ĭch": 2350,
      "/2018": 2351,
      "ier": 2352,
      "ĠLÆ°u": 2353,
      "NgoÃłi": 2354,
      "Ġliá»ģn": 2355,
      "á»±u": 2356,
      "ĠBÃŃ": 2357,
      "Ġmá»Ļ": 2358,
      "Ġsá»£": 2359,
      "Ġhuáº¥n": 2360,
      "Ġsá»©": 2361,
      "Ġrau": 2362,
      "\\left": 2363,
      "ĠtiÃªm": 2364,
      "kmÂ²": 2365,
      "ĠKáº¿": 2366,
      "ĠngÆ°á»£c": 2367,
      "/QÄĲ-": 2368,
      "ĠTiáº¿n": 2369,
      "Ġlinh": 2370,
      "ork": 2371,
      "Ġ60": 2372,
      "ĠxÃ¢m": 2373,
      "ook": 2374,
      "ana": 2375,
      "orn": 2376,
      "Ġthá»Ŀ": 2377,
      "á»ĩt": 2378,
      "Ġe": 2379,
      "/4": 2380,
      "Ġkm": 2381,
      "ĠgiÃłu": 2382,
      "la": 2383,
      "ĠKhÃ¡nh": 2384,
      "ĠÄĳem": 2385,
      "Ġrá»Ŀi": 2386,
      "Ġphá»ķi": 2387,
      "ĠphÃ¡o": 2388,
      "ĠNH": 2389,
      "ĠÄĳai": 2390,
      "Ġthiá»ĩu": 2391,
      "/2020": 2392,
      "ĠÄĲá»ĭnh": 2393,
      "ith": 2394,
      "ĠphÃ³": 2395,
      "Ġbá»ĵi": 2396,
      "ĠPhong": 2397,
      "ĠÄĳÃ³n": 2398,
      "ĠrÆ¡i": 2399,
      "Ġvitamin": 2400,
      "ĠÄĳÃłi": 2401,
      "ge": 2402,
      "Ġgá»ĵm:": 2403,
      "/11": 2404,
      "Ġ02": 2405,
      "ĠrÆ°á»£u": 2406,
      "ĠnghÃ¬n": 2407,
      "land": 2408,
      "Ġgáº¯ng": 2409,
      "ĠÄĲá»": 2410,
      "ĠtrÆ°Æ¡ng": 2411,
      "Ġhá»©": 2412,
      "Ġmay": 2413,
      "ĠChÆ°Æ¡ng": 2414,
      "ĠÄĲoÃłn": 2415,
      "á»¦": 2416,
      "Ġcháº·n": 2417,
      "uá»ĳi": 2418,
      "ick": 2419,
      "ĠdÆ°": 2420,
      "Ġná»Ńa": 2421,
      "ĠdÃły": 2422,
      "60": 2423,
      "ĠÄĳá»Ľi": 2424,
      "ĠhÃ´": 2425,
      "ĠgiÃ³": 2426,
      "5%": 2427,
      "Ġ2022": 2428,
      "Ġpha": 2429,
      "/10": 2430,
      "Ġkhá»§ng": 2431,
      "Ġ\"A": 2432,
      "enn": 2433,
      "ĠÄĲÃłi": 2434,
      "/2017": 2435,
      "ĠTT": 2436,
      "lor": 2437,
      "2}": 2438,
      "Ġthiá»ĥu": 2439,
      "/6": 2440,
      "ĠmÆ°u": 2441,
      "ĠCar": 2442,
      "ert": 2443,
      "Iá»": 2444,
      "Ġde": 2445,
      "iss": 2446,
      "rom": 2447,
      "Ġ.": 2448,
      "/2019": 2449,
      "Ġxáº¥u": 2450,
      "ĠvÃŃ": 2451,
      "á»Ļm": 2452,
      "Ġi": 2453,
      "ĠÄĳua": 2454,
      "dfrac": 2455,
      "ĠThá»§y": 2456,
      "/5": 2457,
      "Ġná»Ĺ": 2458,
      "Ġlá»Ĺi": 2459,
      "Ġ\"t": 2460,
      "ĠSá»ĳ": 2461,
      "rus": 2462,
      "ĠXÃ´": 2463,
      "Náº¿u": 2464,
      "hoe": 2465,
      "ĠÄĲá»ĥ": 2466,
      "-B": 2467,
      "Ġchá»Ŀ": 2468,
      "ĠlÃł:": 2469,
      "Sá»±": 2470,
      "Ġnáº¯m": 2471,
      "ĠSá»±": 2472,
      "Ġdá»«ng": 2473,
      "ĠtáºŃn": 2474,
      "ĠTR": 2475,
      "ld": 2476,
      "Ġcuá»ĳn": 2477,
      "ĠMan": 2478,
      "ĠAm": 2479,
      "Ġhy": 2480,
      "ica": 2481,
      "ĠbÃŃ": 2482,
      "á»įa": 2483,
      "Ġxo": 2484,
      "ĠrÃłng": 2485,
      "Ġalbum": 2486,
      "CH": 2487,
      "ez": 2488,
      "/NÄĲ-": 2489,
      "26": 2490,
      "/2016": 2491,
      "ĠvÃ¢y": 2492,
      "/7": 2493,
      "kg": 2494,
      "Ġkhiá»ĥn": 2495,
      "Ġquáº£ng": 2496,
      "Ġcáº¥m": 2497,
      "/2022": 2498,
      "ĠtrÃło": 2499,
      "Ġngá»«a": 2500,
      "ÃĤN": 2501,
      "ague": 2502,
      "Ġnháº¥n": 2503,
      "ĠÄĳá»¡": 2504,
      "tein": 2505,
      "ID": 2506,
      "ĠphÃ¡n": 2507,
      "ank": 2508,
      "Ġquang": 2509,
      "ĠbÃ£i": 2510,
      ".)": 2511,
      "ald": 2512,
      "Ġ\"L": 2513,
      "ros": 2514,
      "ĠRe": 2515,
      "tern": 2516,
      "ĠBÃłi": 2517,
      "ĠCáº£nh": 2518,
      "Ġchá»§ng": 2519,
      "ĠTrÆ°á»Ľc": 2520,
      "Ġchá»£": 2521,
      "Ġhiá»ĩp": 2522,
      "/NÄĲ-CP": 2523,
      "ĠThÆ°á»£ng": 2524,
      "ĠDá»±": 2525,
      "22": 2526,
      "Ġnháº¯c": 2527,
      "-khoe": 2528,
      "oll": 2529,
      "ek": 2530,
      "ST": 2531,
      "ĠphÃ¡i": 2532,
      "Ã¼": 2533,
      "ĠMáº·t": 2534,
      "Ġgan": 2535,
      "ĠcÄĥng": 2536,
      "Vá»Ľi": 2537,
      "ĠTáº¿t": 2538,
      "ĠNhiá»ģu": 2539,
      "LV": 2540,
      "Ä±": 2541,
      "Ġcháº¯n": 2542,
      "ĠgÃł": 2543,
      "ĠngÅ©": 2544,
      "ĠhÃłi": 2545,
      "Ġ35": 2546,
      "ĠmÃª": 2547,
      "oph": 2548,
      "/2021": 2549,
      "CN": 2550,
      "ĠCÃ¢u": 2551,
      "ĠbÃ©o": 2552,
      "rel": 2553,
      "ipp": 2554,
      "ĠNÃ´ng": 2555,
      "ĠcÃł": 2556,
      "ĠbáºŃt": 2557,
      "Ġsá»ĳt": 2558,
      "99": 2559,
      "Ġgam": 2560,
      "UY": 2561,
      "arr": 2562,
      "Ġtrá»¥c": 2563,
      "ĠCan": 2564,
      "ĠKho": 2565,
      "Hiá»ĩn": 2566,
      "ĠHÃ¹ng": 2567,
      "ight": 2568,
      "Ġcáº·p": 2569,
      "ĠXÃ£": 2570,
      "Ġ\"b": 2571,
      "uc-khoe": 2572,
      "Ġngang": 2573,
      "ÄĲá»ĥ": 2574,
      "/8": 2575,
      "ĠlÃłnh": 2576,
      "ĠDu": 2577,
      "Tá»ķng": 2578,
      "Ġxá»©": 2579,
      "Ġchá»Ł": 2580,
      "Ġtá»ĩ": 2581,
      "ĠPhan": 2582,
      "ĠChu": 2583,
      "ĠGr": 2584,
      "ĠThá»Ŀi": 2585,
      "Ġláº«n": 2586,
      "Ġngáº¡i": 2587,
      "ĠHÆ°Æ¡ng": 2588,
      "VN": 2589,
      "ĠÄĲa": 2590,
      "ĠcáºŃu": 2591,
      "ĠTrÆ°Æ¡ng": 2592,
      "ĠAs": 2593,
      "-201": 2594,
      "ox": 2595,
      "cm": 2596,
      "Ġmá»Ŀi": 2597,
      "ĠBiÃªn": 2598,
      "Ġcháº©n": 2599,
      "Ġáº©m": 2600,
      "80": 2601,
      "Ġkháº¯p": 2602,
      "ĠSp": 2603,
      "a-": 2604,
      "ĠtÃ³c": 2605,
      "ĠIs": 2606,
      "Ġláº¯ng": 2607,
      "áºŃc": 2608,
      "ĠThuáºŃn": 2609,
      "Ġnáº¯ng": 2610,
      "Ġháº¡nh": 2611,
      "ĠmÃ¡i": 2612,
      "ĠHo": 2613,
      "ont": 2614,
      "ĠTrÆ°á»Łng": 2615,
      "ĠNhÆ°": 2616,
      "ĠÃĿ": 2617,
      ".Ġ": 2618,
      "ong-": 2619,
      "ĠEl": 2620,
      "24": 2621,
      "Ġquá»¹": 2622,
      "ĠÄĳá»©a": 2623,
      "ect": 2624,
      "ara": 2625,
      "ĠÄĲÆ°á»Ŀng": 2626,
      "ĠthÆ°á»Ľc": 2627,
      "á»©a": 2628,
      "ĠNghá»ĩ": 2629,
      "CÄĥn": 2630,
      "ĠQuy": 2631,
      "ĠÄĳá»īnh": 2632,
      "ĠHÄĲ": 2633,
      "Ġruá»Ļt": 2634,
      "ĠBar": 2635,
      "ĠÄĳe": 2636,
      "Ġhá»ĵng": 2637,
      "ĠlÅ©": 2638,
      "Æ°á»Ľp": 2639,
      "yria": 2640,
      "ĠEm": 2641,
      "ere": 2642,
      "ĠÄĲáº§u": 2643,
      "Ġtháº§y": 2644,
      "ĠMal": 2645,
      "Ġ2008": 2646,
      "ĠDÅ©ng": 2647,
      "ĠthÃ¹": 2648,
      "áº¾": 2649,
      "Ġ2009": 2650,
      "les": 2651,
      "/9": 2652,
      "unt": 2653,
      "Ìĥ": 2654,
      "he": 2655,
      "BÃłi": 2656,
      "Ġst": 2657,
      "Ġdá»įa": 2658,
      "Ġcháº¥n": 2659,
      "Ġlá»ĳi": 2660,
      "ĠÄĳáºŃu": 2661,
      "ym": 2662,
      "ĠbáºŃc": 2663,
      "yn": 2664,
      "ĠPr": 2665,
      "ĠtÃºi": 2666,
      "á»¥n": 2667,
      "ĠlÃ´ng": 2668,
      "ĠkÃªnh": 2669,
      "Ġcháº¥m": 2670,
      "ĠHÃ¡n": 2671,
      "ĠbÃ²": 2672,
      "i-": 2673,
      "ĠgÃ³i": 2674,
      "ĠÄĳáº¡n": 2675,
      "ĠTá»īnh": 2676,
      "ĠmÃ©t": 2677,
      "ĠÄĳiá»ĥn": 2678,
      "Ġ\"Ch": 2679,
      "ĠBÃ¡c": 2680,
      "ood": 2681,
      "ĠNgoáº¡i": 2682,
      "UBND": 2683,
      "ple": 2684,
      "!Ċ": 2685,
      "Ġ2007": 2686,
      "ĠÄĳÄ©a": 2687,
      "aÌĢ": 2688,
      "arrow": 2689,
      "ĠGiá»": 2690,
      "ĠPhil": 2691,
      "ose": 2692,
      "201": 2693,
      "Ġfor": 2694,
      "ĠdÃłng": 2695,
      "uro": 2696,
      "á»ŀ": 2697,
      "Ġphá»©c": 2698,
      "90": 2699,
      "ĠtrÃŃch": 2700,
      "ĠNgÃ´": 2701,
      "Giáº£i": 2702,
      "ada": 2703,
      "£t": 2704,
      "ĠdáºŃy": 2705,
      "ock": 2706,
      "eth": 2707,
      "//": 2708,
      "Ġtri": 2709,
      "ĠtÃ¡n": 2710,
      "Ġmáº½": 2711,
      "ĠVÃł": 2712,
      "Ġngá»«ng": 2713,
      "27": 2714,
      "ius": 2715,
      "ÃĬ": 2716,
      "Ã£ng": 2717,
      "Ġvá»¡": 2718,
      "ong-t": 2719,
      "ĠQuáº£n": 2720,
      "ĠtÃ¡": 2721,
      "ĠVÃ¢n": 2722,
      "45": 2723,
      "ĠÄĳá»£t": 2724,
      "á»¯u": 2725,
      "uch": 2726,
      "Ġ\"ch": 2727,
      "ĠCO": 2728,
      "Ġ\"m": 2729,
      "200": 2730,
      "ĠÄĳÃ¡m": 2731,
      "Ġyou": 2732,
      "ĠNG": 2733,
      "ays": 2734,
      "ea": 2735,
      "Ġxong": 2736,
      "ĠÄĲÃ´": 2737,
      "Ġthua": 2738,
      "ĠÄĳÃ²i": 2739,
      "ĠlÆ°á»Ľi": 2740,
      "ĠgÃ³c": 2741,
      "Ġ|": 2742,
      "ĠĠĠ": 2743,
      "-H": 2744,
      "Ġ70": 2745,
      "/v": 2746,
      "ĠmÃłng": 2747,
      "Ġkhá»Ľp": 2748,
      "ĠhÃ¨": 2749,
      "ĠÆ¡n": 2750,
      "ĠGD": 2751,
      "Ġdá»ĭp": 2752,
      "ĠMy": 2753,
      "ump": 2754,
      "ĠLÆ°Æ¡ng": 2755,
      "ĠKiá»ĥm": 2756,
      "ĠViet": 2757,
      "ĠTrang": 2758,
      "ĠSch": 2759,
      "://": 2760,
      "sinh": 2761,
      "ĠHÃ¬nh": 2762,
      "ma": 2763,
      "áº¥c": 2764,
      "Ġláº¡": 2765,
      "Ġbuá»ĵn": 2766,
      "ĠtÃ¹y": 2767,
      "TP": 2768,
      "ĠBáº¡n": 2769,
      "Ġ[": 2770,
      "ĠBl": 2771,
      "500": 2772,
      "ĠBÃ¡o": 2773,
      "ĠlÆ°ng": 2774,
      "ico": 2775,
      "-v": 2776,
      "ĠSyria": 2777,
      "Ġdao": 2778,
      "ĠGiao": 2779,
      "Ġngáº§m": 2780,
      "ong-tin": 2781,
      "-tuc": 2782,
      "Ġtruyá»ĩn": 2783,
      "ĠInd": 2784,
      "ohn": 2785,
      "ĠÄĲáº¿": 2786,
      "70": 2787,
      "NN": 2788,
      "Ġkháº©n": 2789,
      "Ġnon": 2790,
      "ice": 2791,
      "Ġkhá»ķ": 2792,
      "Ġgá»Ĺ": 2793,
      "ĠÃ©p": 2794,
      "tt": 2795,
      "ĠtÆ°Æ¡i": 2796,
      "tin-tuc": 2797,
      "ĠCá»ķ": 2798,
      "ei": 2799,
      "Ġniá»ģm": 2800,
      "/thong-tin": 2801,
      "Ġtáº¥m": 2802,
      "mm": 2803,
      "ĠHuy": 2804,
      "Ġ\"ÄĲ": 2805,
      "ĠXÃ¢y": 2806,
      "Ġmá»±c": 2807,
      "ĠthÃ¡o": 2808,
      "Ġon": 2809,
      "ies": 2810,
      "ama": 2811,
      "Ġbá»ģn": 2812,
      "Ġ2006": 2813,
      "Ġdiá»ĩt": 2814,
      "á»Ľt": 2815,
      "ĠBá»ĭ": 2816,
      "ĠkÃªu": 2817,
      "ĠThá»±c": 2818,
      "Ġdá»©t": 2819,
      "Ġngá»±c": 2820,
      "anth": 2821,
      "Ã£nh": 2822,
      "ary": 2823,
      "/TT": 2824,
      "Ã©n": 2825,
      "Ġ300": 2826,
      "21": 2827,
      "ĠtÃłng": 2828,
      "Ġáº©n": 2829,
      "Ġ80": 2830,
      "ella": 2831,
      "ĠSa": 2832,
      "SE": 2833,
      "Ġ500": 2834,
      "Ġgiam": 2835,
      "ĠBÃªn": 2836,
      "ear": 2837,
      "ite": 2838,
      "ys": 2839,
      "ĠUn": 2840,
      "Ġthuyá»ģn": 2841,
      "gi": 2842,
      "ĠLai": 2843,
      "Ġtan": 2844,
      "ĠMáº·c": 2845,
      "ated": 2846,
      "ĠcÃº": 2847,
      "á»·": 2848,
      "ĠĠĠĠĠĠĠĠĠĠĠĠĠĠĠĠĠĠĠĠĠĠĠĠĠĠĠĠĠĠĠĠĠĠĠĠĠĠĠĠĠĠĠĠĠĠĠĠĠĠĠĠĠĠĠĠĠĠĠĠĠĠĠĠ": 2849,
      "ĠHá»¯u": 2850,
      "Ġbá»¯a": 2851,
      "ĠÄĲiá»ĩn": 2852,
      "ĠnhÃ¡nh": 2853,
      "Ġ.Ċ": 2854,
      "ĠtÄ©nh": 2855,
      "Ġtáº¯t": 2856,
      "28": 2857,
      "ĠPH": 2858,
      "ĠKáº¿t": 2859,
      "ĠHLV": 2860,
      "Ġtráº§m": 2861,
      "29": 2862,
      "Ġmá»¹": 2863,
      "amb": 2864,
      "ĠkhÃŃch": 2865,
      "ĠtrÃ²n": 2866,
      "ĠÄĲáº·c": 2867,
      "Ġlá»Ĺ": 2868,
      "ĠVinh": 2869,
      "á»ĺ": 2870,
      "ish": 2871,
      "Ġváº¯ng": 2872,
      "Ġhu": 2873,
      "LoÃłi": 2874,
      "Ġmáº¥y": 2875,
      "ines": 2876,
      "ĠQuáºŃn": 2877,
      "ĠLÃło": 2878,
      "Ġbá»ĳi": 2879,
      "ones": 2880,
      "act": 2881,
      "Ġgáº¥p": 2882,
      "ype": 2883,
      "Ġ\"D": 2884,
      "á»¤": 2885,
      "Ġbáº¡ch": 2886,
      "ĠgiáºŃt": 2887,
      "ĠTÃ´ng": 2888,
      "Ġcá»Ļt": 2889,
      "ĠÄĳoáº¡t": 2890,
      "ĠÄĲÃ³": 2891,
      "Ġhiáº¿m": 2892,
      "opter": 2893,
      "Ġvá»ı": 2894,
      "orld": 2895,
      "ĠyÃªn": 2896,
      "ĠVÃµ": 2897,
      "Ġvideo": 2898,
      "An": 2899,
      "ley": 2900,
      "Ì£c": 2901,
      "ps://": 2902,
      "ax": 2903,
      "Ġcáº£n": 2904,
      "ĠvÆ°á»Ŀn": 2905,
      "Ġcá»±u": 2906,
      "yc": 2907,
      "Ġrá»Ńa": 2908,
      "Ġchá»¥c": 2909,
      "Sá»ĳ": 2910,
      "old": 2911,
      "ĠÃļ": 2912,
      "Le": 2913,
      "ĠthÃ¡ch": 2914,
      "ĠHá»ĩ": 2915,
      "ĠCÃ¡ch": 2916,
      "ĠtÃ¡ch": 2917,
      "ĠHáº¡": 2918,
      "ĠniÃªm": 2919,
      "ann": 2920,
      "Ġngá»įt": 2921,
      "áº¢nh": 2922,
      "Ġbá»Ļt": 2923,
      "pl": 2924,
      "ĠnhÃ£n": 2925,
      "ĠAnd": 2926,
      "ĠÄĳuá»ķi": 2927,
      "75": 2928,
      "-4": 2929,
      "ĠchÃ³": 2930,
      "ĠÄĳáº³ng": 2931,
      "ĠbÃ¨": 2932,
      "Ġ2000": 2933,
      "Ġxáº¡": 2934,
      "Ġâ": 2935,
      "Ġ\"th": 2936,
      "Ġtráº¡i": 2937,
      "á»§i": 2938,
      "Ġcáº£ng": 2939,
      "Ġáº¢": 2940,
      "/200": 2941,
      "vinmec": 2942,
      "Lá»ĭch": 2943,
      "ĠCup": 2944,
      "/thong-tin-s": 2945,
      "Danh": 2946,
      "ĠLeague": 2947,
      "Ġvirus": 2948,
      "Ġcháº¡m": 2949,
      "á»ĩn": 2950,
      "ĠPhÆ°á»Ľc": 2951,
      "ĠHC": 2952,
      "ĠThá»¥y": 2953,
      "ĠlÃłn": 2954,
      "Ġáº¥m": 2955,
      "ĠDuy": 2956,
      "Iá»Ĩ": 2957,
      "ĠtáºŃt": 2958,
      "Ġbiáº¿t:": 2959,
      "ĠCl": 2960,
      "nam": 2961,
      "ĠtráºŃt": 2962,
      "ĠGu": 2963,
      "us\"": 2964,
      "kt": 2965,
      "-m": 2966,
      "35": 2967,
      "ĠÄĲáº¥t": 2968,
      "rm": 2969,
      "ĠVN": 2970,
      "aria": 2971,
      "Ġ36": 2972,
      "Ġbom": 2973,
      "ĠthÆ°á»£ng": 2974,
      "Ġláº»": 2975,
      "Ġtháº§u": 2976,
      "www": 2977,
      "Ġ190": 2978,
      "Ġ\"P": 2979,
      "Ġlá»įc": 2980,
      "Ġcl": 2981,
      "Viá»ĩc": 2982,
      "Ġ90": 2983,
      "Ġnhi": 2984,
      "ÄĲÃ¢y": 2985,
      "ĠÄĲá»ģ": 2986,
      "Ġ03": 2987,
      "ashi": 2988,
      "Do": 2989,
      "ĠIt": 2990,
      "ala": 2991,
      "ÄĲá»ĳi": 2992,
      "ĠÄĳá»ĳt": 2993,
      "Ġmá»¥n": 2994,
      "Ìģc": 2995,
      "CÃ¡ch": 2996,
      "ĠthÄĥng": 2997,
      "Ġgáº¡o": 2998,
      "ĠÄĳÃłm": 2999,
      "nÄĥm": 3000,
      "Ġchim": 3001,
      "ĠBÃ¹i": 3002,
      "ĠSc": 3003,
      "Ġkhung": 3004,
      "Ġex": 3005,
      "ĠLao": 3006,
      "ĠbuÃ´n": 3007,
      "ĠxÄĥng": 3008,
      "xi": 3009,
      "Ġxá»ī": 3010,
      "ien": 3011,
      "Thá»Ŀi": 3012,
      "Ãªnh": 3013,
      "Ġtiá»ģm": 3014,
      "ĠsÃłn": 3015,
      "ĠthÃ´i": 3016,
      "ĠHá»ĵi": 3017,
      ",...": 3018,
      "ĠCáº§n": 3019,
      "ĠTrump": 3020,
      "ĠCho": 3021,
      "arb": 3022,
      "Ġweb": 3023,
      "Ã¶": 3024,
      "Ġ\"s": 3025,
      "ĠÃģN": 3026,
      "ha": 3027,
      "Ġmá»«ng": 3028,
      "BC": 3029,
      "ĠGiáº¥y": 3030,
      "Ġ2005": 3031,
      "Ġ2004": 3032,
      "ĠcÆ°á»Ľi": 3033,
      "TÃ´i": 3034,
      "Ġdá»įc": 3035,
      "/thong-tin-suc-khoe": 3036,
      "Ġdáº¡": 3037,
      "ĠÄĲá»Ļi": 3038,
      "SN": 3039,
      "ya": 3040,
      "Ġtrá»Ļm": 3041,
      "ark": 3042,
      "ĠHá»£p": 3043,
      "ĠLá»Ļc": 3044,
      "ĠCÃ²n": 3045,
      "/c": 3046,
      "ĠAp": 3047,
      "u-": 3048,
      "Ġsá»¹": 3049,
      "Ġngo": 3050,
      "ps://www": 3051,
      "BÆ°á»Ľc": 3052,
      "ceae": 3053,
      "gh": 3054,
      "Ġtrá»ĳn": 3055,
      "áº¯k": 3056,
      "Ġ\"h": 3057,
      "XH": 3058,
      "ĠgiÃł": 3059,
      "ĠPháº§n": 3060,
      "ĠrÃ¡c": 3061,
      "ĠSÃłi": 3062,
      "ĠcÆ°á»Ľp": 3063,
      "iáº¿c": 3064,
      "ĠhÃ¹ng": 3065,
      "ler": 3066,
      "ĠTá»±": 3067,
      "per": 3068,
      "Ġoxy": 3069,
      "och": 3070,
      "Ġbáº¡o": 3071,
      "ĠmÆ¡": 3072,
      "ĠTam": 3073,
      "ĠlÃŃnh": 3074,
      "Ġmuá»ĳi": 3075,
      "alia": 3076,
      "ThÃ¡ng": 3077,
      "ĠnhiÃªu": 3078,
      "Ġháº¹n": 3079,
      "Ġgiáº£ng": 3080,
      "ĠtÆ°á»Ľc": 3081,
      "ĠTrá»įng": 3082,
      "Trung": 3083,
      "ĠTiá»ģn": 3084,
      "Ngh": 3085,
      "ĠlÃ¢y": 3086,
      "36": 3087,
      "Ġsa": 3088,
      "Ġnhá»ĩn": 3089,
      "xit": 3090,
      "Ġ189": 3091,
      "ave": 3092,
      "post": 3093,
      "ĠchÃºt": 3094,
      "Ġngá»±a": 3095,
      "ĠThÃ¡ng": 3096,
      "Ġkháº¥u": 3097,
      "ĠkhuÃ´n": 3098,
      "ĠmÃ£n": 3099,
      "ĠTruyá»ģn": 3100,
      "Ġro": 3101,
      "Ġhoang": 3102,
      "ĠhÆ°": 3103,
      "Ġbá»ģ": 3104,
      "Ġ\"l": 3105,
      "Ġchá»ĳi": 3106,
      "ĠngÃłn": 3107,
      "ÃŃa": 3108,
      "ThÃ´ng": 3109,
      "ĠJohn": 3110,
      "Ìģt": 3111,
      "ĠvÃ©": 3112,
      "com/v": 3113,
      "ĠCol": 3114,
      "Ġtháº»": 3115,
      "ĠÄĲá»Ĭ": 3116,
      "Ġhá»Ļp": 3117,
      "aul": 3118,
      "ĠChá»ĭ": 3119,
      "ĠFran": 3120,
      "ĠHuáº¿": 3121,
      "com/vi/": 3122,
      "Em": 3123,
      "ust": 3124,
      "Ġ1999": 3125,
      "ix": 3126,
      "ĠsÃ¡u": 3127,
      "CC": 3128,
      "ÌĢi": 3129,
      "ĠGÃ²n": 3130,
      "ĠHáºŃu": 3131,
      "related": 3132,
      "i\"": 3133,
      "ĠnhuáºŃn": 3134,
      "ĠgÆ°Æ¡ng": 3135,
      "Ġgen": 3136,
      "ĠPl": 3137,
      "over": 3138,
      "ĠLoan": 3139,
      "Ġ45": 3140,
      "ĠlÃºa": 3141,
      "age": 3142,
      "rid": 3143,
      "ĠCS": 3144,
      "ĠkhoÃ¡ng": 3145,
      "ĠAd": 3146,
      "ĠNghÄ©a": 3147,
      "ype=": 3148,
      "posts": 3149,
      "linkt": 3150,
      "relatedposts": 3151,
      "ype=relatedposts": 3152,
      "linktype=relatedposts": 3153,
      "Ġtang": 3154,
      "Ġkia": 3155,
      "Ġha": 3156,
      "Ġ\"V": 3157,
      "ona": 3158,
      "/s": 3159,
      "ca": 3160,
      "ĠkhoÃ¡n": 3161,
      "ool": 3162,
      "rt": 3163,
      "ett": 3164,
      "ĠTuyÃªn": 3165,
      "ania": 3166,
      "m2": 3167,
      "ĠÄĳÃ¨n": 3168,
      "Ġmai": 3169,
      "Ġhá»ıa": 3170,
      "IV": 3171,
      "ÄĲáº¡i": 3172,
      "ĠÄĳá»£i": 3173,
      "Ġliá»ģu": 3174,
      "Ġbe": 3175,
      "Ġcháº½": 3176,
      "ĠTiá»ĥu": 3177,
      "kr": 3178,
      "ĠÄĳá»©c": 3179,
      ".ĠĠĠ": 3180,
      "Ġpl": 3181,
      "ĠxÆ¡": 3182,
      "Ġcá»Ŀ": 3183,
      "ict": 3184,
      "ve": 3185,
      "Ġmá»ķ": 3186,
      "ÃĶ": 3187,
      "ĠkÃ¬": 3188,
      "ÄĲÆ°á»£c": 3189,
      "Ġá»ĳc": 3190,
      "Ġtá»ıa": 3191,
      "ĠVinmec": 3192,
      "Ġac": 3193,
      "ĠkÃŃn": 3194,
      "yd": 3195,
      "ĠPhilipp": 3196,
      "ct": 3197,
      "Nhiá»ģu": 3198,
      "Ġnhá»ĭp": 3199,
      "Ġráº¯n": 3200,
      "Anh": 3201,
      "oth": 3202,
      "ĠHe": 3203,
      "ĠdÃ¡ng": 3204,
      "att": 3205,
      "Ġ\"N": 3206,
      "38": 3207,
      "how": 3208,
      "ĠThá»©": 3209,
      "CT": 3210,
      "ani": 3211,
      "-5": 3212,
      "bur": 3213,
      "Ġtráº¡m": 3214,
      "ile": 3215,
      "ĠngÃ£": 3216,
      "Ġgiáº¥c": 3217,
      "sen": 3218,
      "Ġtáº£ng": 3219,
      "ĠCal": 3220,
      "ĠcÆ°á»Ŀi": 3221,
      "Ġcá»ı": 3222,
      "ram": 3223,
      "Ġ\\dfrac": 3224,
      "Ġare": 3225,
      "áº¤": 3226,
      "ĠÄĲá»Ĺ": 3227,
      "^2}": 3228,
      "£n": 3229,
      "á»ĳm": 3230,
      "ĠÄĳáºŃp": 3231,
      "ĠDi": 3232,
      "Ġtrá»ĳng": 3233,
      "ĠTáº¥n": 3234,
      "ĠtÆ°á»Ŀng": 3235,
      "Ġj": 3236,
      "orm": 3237,
      "Ġprotein": 3238,
      "ĠSan": 3239,
      "Ġsp": 3240,
      "ren": 3241,
      "Ġgá»¡": 3242,
      "iaceae": 3243,
      "ĠPháºŃt": 3244,
      "ĠchÃŃn": 3245,
      "ĠÃļc": 3246,
      "ĠWorld": 3247,
      "ech": 3248,
      "Ġkhen": 3249,
      "na": 3250,
      "ĠbÃ¹": 3251,
      "out": 3252,
      "Ġ38": 3253,
      "ĠtrÃ´ng": 3254,
      "NhÃł": 3255,
      "ĠTrÃªn": 3256,
      "ĠbÃ³": 3257,
      "000Äĳ": 3258,
      "Ġcai": 3259,
      "Ġhoáº£ng": 3260,
      "Ġná»ĵng": 3261,
      "48": 3262,
      "oid": 3263,
      "tin-tuc/thong-tin-suc-khoe": 3264,
      "ive": 3265,
      "Ġpháº¥n": 3266,
      "ĠHÃłng": 3267,
      "Ġthuáº«n": 3268,
      "Ġsá»ķ": 3269,
      "ĠsÄĥn": 3270,
      "ĠnÃ©t": 3271,
      "ĠdÆ°á»£c": 3272,
      "ĠSer": 3273,
      "hit": 3274,
      "Ġhiáº¿n": 3275,
      "ĠhÃło": 3276,
      "ĠtrÃºng": 3277,
      "ĠTháº¯ng": 3278,
      "ĠQuÃ½": 3279,
      "-202": 3280,
      "37": 3281,
      "Ġná»Ĺi": 3282,
      "iana": 3283,
      "ĠLáº¡p": 3284,
      "itt": 3285,
      "ngÃły": 3286,
      "Al": 3287,
      "ĠchÄĥn": 3288,
      "ash": 3289,
      "ail": 3290,
      "ĠmÃ¹i": 3291,
      "ĠAi": 3292,
      "ĠSing": 3293,
      "áºł": 3294,
      "ĠTrÃ¡i": 3295,
      "ĠBiá»ĥn": 3296,
      "ver": 3297,
      "osa": 3298,
      "ĠÄĳá»ģn": 3299,
      "ĠSam": 3300,
      "Ġnáº¥u": 3301,
      "ĠQuan": 3302,
      "ĠYork": 3303,
      "Ġchuá»Ĺi": 3304,
      "ka": 3305,
      "Ġ2023": 3306,
      "AM": 3307,
      "ron": 3308,
      "ĠngÆ°": 3309,
      "Ġváº½": 3310,
      "á»ıng": 3311,
      "Ġlá»£n": 3312,
      "Ġláº¯p": 3313,
      "Ġhá»©ng": 3314,
      "-th": 3315,
      "Ġhuá»ĳng": 3316,
      "ternet": 3317,
      "ĠCamp": 3318,
      "Ġ>": 3319,
      "ĠHá»įc": 3320,
      "ions": 3321,
      "ĠThá»ĥ": 3322,
      "Ġmá»ĩnh": 3323,
      "ola": 3324,
      "istan": 3325,
      "Ġkiá»ĩm": 3326,
      "-x": 3327,
      "ĠTriá»ĩu": 3328,
      "Ġgháº¿": 3329,
      "'t": 3330,
      "ĠchÃłng": 3331,
      "ÄĲá»ĭa": 3332,
      "ĠchÃło": 3333,
      "ĠnhÆ°á»£ng": 3334,
      "ĠAb": 3335,
      "Ġgiá»įng": 3336,
      "ames": 3337,
      "VID": 3338,
      "BÃªn": 3339,
      "33": 3340,
      "á»¥i": 3341,
      "aine": 3342,
      "Ġthang": 3343,
      "ĠÄĲáº·ng": 3344,
      "ĠTrá»ĭnh": 3345,
      "ĠThá»į": 3346,
      "Ġnháº£y": 3347,
      "Ġmá»ıi": 3348,
      "Ġhá»ģ": 3349,
      "array": 3350,
      "ĠsÃ¡nh": 3351,
      "Ġtung": 3352,
      "Ġngon": 3353,
      "100": 3354,
      "men": 3355,
      "ÃĴ": 3356,
      "ĠBH": 3357,
      "ĠTÄ©nh": 3358,
      "ĠÄĲá»ĬNH": 3359,
      "{array": 3360,
      "ĠVá»¥": 3361,
      "VÃ¬": 3362,
      "enz": 3363,
      "ari": 3364,
      "ĠÄĲá»ĭa": 3365,
      "ater": 3366,
      "ĠghÃ©p": 3367,
      "ĠAir": 3368,
      "ĠngáºŃp": 3369,
      "ĠvÃº": 3370,
      "ĠÄĲinh": 3371,
      "III": 3372,
      "Ġcáº¥t": 3373,
      "GT": 3374,
      "ĠUkr": 3375,
      "Ġmá»¡": 3376,
      "ĠThi": 3377,
      "68": 3378,
      "ĠThá»ĳng": 3379,
      "ero": 3380,
      "Ġmáº¡n": 3381,
      "Ġgá»£i": 3382,
      "ĠmÃ¡t": 3383,
      "PhÃ¡t": 3384,
      "ĠPhá»¥": 3385,
      "ĠchÃ¹a": 3386,
      "Ġ\"G": 3387,
      "ĠvÃłnh": 3388,
      "TrÃªn": 3389,
      "oz": 3390,
      "ĠMÃ´i": 3391,
      "ĠHoÃłn": 3392,
      "ĠcÃ£i": 3393,
      "ĠrÃł": 3394,
      "Ġthan": 3395,
      "ĠtuÃ¢n": 3396,
      "rightarrow": 3397,
      ")Ġ(": 3398,
      "ĠquÃł": 3399,
      "Ġcal": 3400,
      "HÃł": 3401,
      "±ng": 3402,
      "ĠxÆ°a": 3403,
      "ĠCá»¥": 3404,
      "Ġ05": 3405,
      "onesia": 3406,
      "ĠEn": 3407,
      "á»ıi": 3408,
      "Ġmá»ĩt": 3409,
      "ott": 3410,
      "98": 3411,
      "Ġga": 3412,
      "ĠCOVID": 3413,
      "ĠToÃłn": 3414,
      "34": 3415,
      "Ġ188": 3416,
      "onald": 3417,
      "mar": 3418,
      "ĠgiÃ£n": 3419,
      "Ġ06": 3420,
      "Ã¹m": 3421,
      "Ġsáº¡n": 3422,
      "onia": 3423,
      "/2015": 3424,
      "ĠbÃ¬": 3425,
      "ĠMá»Ĺi": 3426,
      "Ġcáº¯p": 3427,
      "ĠCÆ°á»Ŀng": 3428,
      "oss": 3429,
      "Ġ37": 3430,
      "Ġ51": 3431,
      "NT": 3432,
      "ĠvÃµ": 3433,
      "ĠThÃ¡nh": 3434,
      "ĠÄĳiá»ĩu": 3435,
      "Ġtháº£m": 3436,
      "ĠchÃºa": 3437,
      "-M": 3438,
      "ĠÄĳá»ĵn": 3439,
      "ĠÄĲH": 3440,
      "Ġor": 3441,
      "KS": 3442,
      "Ġche": 3443,
      "ome": 3444,
      "omb": 3445,
      "¡i": 3446,
      "rist": 3447,
      "ĠTu": 3448,
      "ĠNa": 3449,
      "ĠMad": 3450,
      "ĠThÆ¡": 3451,
      "khÃ´ng": 3452,
      "ĠBe": 3453,
      "Ġ2001": 3454,
      "-c": 3455,
      "ÄĲáº¿n": 3456,
      "Ġá»©c": 3457,
      "ĠvÄ©": 3458,
      "ĠIII": 3459,
      "Ġ\"The": 3460,
      "In": 3461,
      "ino": 3462,
      "ĠxÃ³m": 3463,
      "ĠBáº±ng": 3464,
      "Ġtreo": 3465,
      "Ġviá»ħn": 3466,
      "á»¥t": 3467,
      "rop": 3468,
      "Ġmáº£nh": 3469,
      "ÄĲáº¥t": 3470,
      "Ġuy": 3471,
      "Åį": 3472,
      "ĠsÃ³t": 3473,
      "ĠTáº¥t": 3474,
      "ĠrÃło": 3475,
      "ĠCOVID-19": 3476,
      "ĠvuÃ´ng": 3477,
      "ĠcÆ°Æ¡ng": 3478,
      "ester": 3479,
      "hat": 3480,
      "Chá»įn": 3481,
      "ĠCáº§u": 3482,
      "ĠSinh": 3483,
      "ĠTÃ¬nh": 3484,
      "ĠCÃºc": 3485,
      "Sá»Ł": 3486,
      "uz": 3487,
      "Ġláº¯m": 3488,
      "Ġthiá»ĩp": 3489,
      "Ġ32": 3490,
      "ke": 3491,
      "Báº¡n": 3492,
      "46": 3493,
      "SEAN": 3494,
      "Ġwith": 3495,
      "ĠPhilippines": 3496,
      "ĠIran": 3497,
      "Ġit": 3498,
      "ĠtÃ¡o": 3499,
      "ĠAle": 3500,
      "ĠtÃłn": 3501,
      "ĠEd": 3502,
      "ĠTÃ¢m": 3503,
      "ĠCity": 3504,
      "ĠTim": 3505,
      "95": 3506,
      "ĠkhuyÃªn": 3507,
      "Æ°á»¡i": 3508,
      "Ġháº¡m": 3509,
      "ĠdÃ¢m": 3510,
      "Ġcanh": 3511,
      "-C": 3512,
      "Ì£t": 3513,
      "ĠmÃ¢u": 3514,
      "ĠHuá»³nh": 3515,
      "ike": 3516,
      "ĠSÆ°": 3517,
      "atus": 3518,
      "áº¾T": 3519,
      "tiáº¿ng": 3520,
      "áº¹o": 3521,
      "sh": 3522,
      "Ġcá»¥m": 3523,
      "Ġat": 3524,
      "Ġcá»ĳt": 3525,
      "Ġvinh": 3526,
      "ĠSte": 3527,
      "ĠhÃ¢m": 3528,
      "erm": 3529,
      "ĠPark": 3530,
      "áº±n": 3531,
      "Ġnáº¥m": 3532,
      "ĠLÃºc": 3533,
      "Ġrá»§i": 3534,
      "ĠkiÃªn": 3535,
      "Ġphá»ıng": 3536,
      "Ġhá»ķ": 3537,
      "TS": 3538,
      "Ġhá»ıng": 3539,
      "iá»ħu": 3540,
      "/TT-B": 3541,
      "áº·m": 3542,
      "-6": 3543,
      "Ġ\"v": 3544,
      "ĠphÃº": 3545,
      "ĠTNH": 3546,
      "Ġ1990": 3547,
      "St": 3548,
      "Ġkem": 3549,
      "mer": 3550,
      "Æ°á»£n": 3551,
      "ula": 3552,
      "Ġtá»īnh;": 3553,
      "Ġlang": 3554,
      "va": 3555,
      "Ì£n": 3556,
      "apore": 3557,
      "book": 3558,
      "/T": 3559,
      "ĠTÃŃnh": 3560,
      "Ã¹y": 3561,
      "-0": 3562,
      "ĠCanada": 3563,
      "aysia": 3564,
      "ĠtÃ´ng": 3565,
      "enh": 3566,
      "ota": 3567,
      "use": 3568,
      "ĠÃ¡c": 3569,
      "ĠthÃ©p": 3570,
      "ĠbÃ¡": 3571,
      "ake": 3572,
      "ĠTNHH": 3573,
      "ĠmÃ£i": 3574,
      "47": 3575,
      "ĠTÄĥng": 3576,
      "ĠHÃłnh": 3577,
      "Thá»±c": 3578,
      "ĠbÆ¡": 3579,
      "BÃł": 3580,
      "ĠIndonesia": 3581,
      "CÅ©ng": 3582,
      "]]": 3583,
      "CO": 3584,
      "ĠmÆ°Æ¡i": 3585,
      "Ġtá»ĳng": 3586,
      "Ġháº¹p": 3587,
      "ĠSo": 3588,
      "ĠtrÃłn": 3589,
      "ĠASEAN": 3590,
      "ĠTháº¡ch": 3591,
      "rys": 3592,
      "ĠlÃŃ": 3593,
      "LB": 3594,
      "ena": 3595,
      "ĠCÅ©ng": 3596,
      "ĠlÃ´": 3597,
      "da": 3598,
      "ifol": 3599,
      "ÃĴA": 3600,
      "Ġven": 3601,
      "ĠCÃ¹ng": 3602,
      "ĠÄĳÃ¢m": 3603,
      "Ġ33": 3604,
      "Thá»§": 3605,
      "ĠTHPT": 3606,
      "ner": 3607,
      "Ġ2003": 3608,
      "Ġtia": 3609,
      "uoc": 3610,
      "ĠLá»ħ": 3611,
      "ini": 3612,
      "Ġbia": 3613,
      "ĠChÃ¡nh": 3614,
      "ĠcÆ¡m": 3615,
      "s\"": 3616,
      "--------": 3617,
      "ĠNgay": 3618,
      "ĠkhÃ³c": 3619,
      "65": 3620,
      "Ġmá»ı": 3621,
      "TrÆ°á»Ŀng": 3622,
      "ĠrÃ£i": 3623,
      "ĠquÃªn": 3624,
      "ĠTiáº¿p": 3625,
      "ale": 3626,
      "Chá»§": 3627,
      "ink": 3628,
      "hoáº£ng": 3629,
      "ĠbÃº": 3630,
      "áº³n": 3631,
      "-7": 3632,
      "berg": 3633,
      "htt": 3634,
      "Ġ48": 3635,
      "Ġlá»ıng": 3636,
      "ngÆ°á»Ŀi": 3637,
      "ĠÄĳÃ¡o": 3638,
      "ase": 3639,
      "/2014": 3640,
      "Ġpháº¿": 3641,
      "ĠxuÃ¢n": 3642,
      "ĠxÃ³a": 3643,
      "Ġam": 3644,
      "Bá»ĩnh": 3645,
      "ĠhÃ´i": 3646,
      "Ġhá»¥": 3647,
      "ĠPro": 3648,
      "ura": 3649,
      "Ġlá»ĩch": 3650,
      "Ġ34": 3651,
      "ĠÄĲáºŃu": 3652,
      "ĠtÃºc": 3653,
      "Ġmá»įc": 3654,
      "ĠCÄĥn": 3655,
      "Ġel": 3656,
      "ĠCáº£": 3657,
      "ĠTá»Ń": 3658,
      "Ġ04": 3659,
      "yll": 3660,
      "gen": 3661,
      "ĠMalaysia": 3662,
      "ĠBá»Łi": 3663,
      "ĠSingapore": 3664,
      "ĠDÃ¹": 3665,
      "Ġáº¥p": 3666,
      "ustr": 3667,
      "ĠthÃ¡p": 3668,
      "ĠÄĳáº»": 3669,
      "Ġ39": 3670,
      "39": 3671,
      "ris": 3672,
      "Ġaxit": 3673,
      "iam": 3674,
      "Ġno": 3675,
      "acebook": 3676,
      "Ġ\"n": 3677,
      "Ġlong": 3678,
      "Ġ09": 3679,
      "ĠDe": 3680,
      "ĠÄĲáº¡o": 3681,
      "Ġnhá»±a": 3682,
      "Hai": 3683,
      "Ġtáº¯m": 3684,
      "line": 3685,
      "įa": 3686,
      "ĠRob": 3687,
      "ĠSá»Ń": 3688,
      "ĠthÃ³i": 3689,
      "Con": 3690,
      "ĠnÃ´n": 3691,
      "tre": 3692,
      "67": 3693,
      "áº«y": 3694,
      "Máº·c": 3695,
      "ĠPV": 3696,
      "ĠMáº¡nh": 3697,
      "LiÃªn": 3698,
      "ĠThiáº¿u": 3699,
      "Ġtá»įa": 3700,
      "ĠnÃłng": 3701,
      "ĠNai": 3702,
      "Ġ\"R": 3703,
      "eor": 3704,
      "32": 3705,
      "Ġgiá»ıi": 3706,
      "ric": 3707,
      "vn": 3708,
      "uchia": 3709,
      "omp": 3710,
      "ĠGo": 3711,
      "ĠHar": 3712,
      "ĠngÆ°á»¡ng": 3713,
      "Ġchua": 3714,
      "/QÄĲ-UBND": 3715,
      "Ġháº³n": 3716,
      "ĠParis": 3717,
      "Ġlá»«a": 3718,
      "ĠUy": 3719,
      "ĠÄĳuÃ´i": 3720,
      "Ġhá»Ĺn": 3721,
      "................................................................": 3722,
      "ĠPal": 3723,
      "Káº¿t": 3724,
      "Ġtháº£": 3725,
      "ĠnhÅ©ng": 3726,
      "ure": 3727,
      "ty": 3728,
      "ĠLá»±c": 3729,
      "uáº¥t": 3730,
      "ial": 3731,
      "SA": 3732,
      "ĠnÃ³i:": 3733,
      "sq": 3734,
      "ĠMa": 3735,
      "44": 3736,
      "sqrt": 3737,
      "Ġsá»ĳ:": 3738,
      "55": 3739,
      "Ġmáº¯n": 3740,
      "ĠHÄĲND": 3741,
      "Chi": 3742,
      "Ġsoáº¡n": 3743,
      "ĠGI": 3744,
      "ĠÄĳÃ£i": 3745,
      "-l": 3746,
      "ĠÄĲÆ°á»£c": 3747,
      "-8": 3748,
      "Ġgame": 3749,
      "EM": 3750,
      "ĠÄĳá»ĩ": 3751,
      "ĠTrÃł": 3752,
      "Ġhá»ĵn": 3753,
      "ane": 3754,
      "Ġ2002": 3755,
      "Ġkáº½": 3756,
      "Ġ150": 3757,
      "rael": 3758,
      "áº¹t": 3759,
      "ali": 3760,
      "Ġnháº¡y": 3761,
      "ĠCáºŃp": 3762,
      "Ġhá»įng": 3763,
      "int": 3764,
      "ÌĢng": 3765,
      "Ìģi": 3766,
      "ĠThÆ°": 3767,
      "ĠCuá»Ļc": 3768,
      "ĠTPHCM": 3769,
      "Ġháº±ng": 3770,
      "ĠngÆ°á»Ŀi/": 3771,
      "ĠcÃ¡t": 3772,
      "Ġ187": 3773,
      "ĠCov": 3774,
      "ĠbÃª": 3775,
      "err": 3776,
      "ĠKH": 3777,
      "ĠTÃ´n": 3778,
      "-g": 3779,
      "Dá»±": 3780,
      "HS": 3781,
      "FA": 3782,
      "ĠAng": 3783,
      "ĠÄĳáºŃm": 3784,
      "ĠÄĳá»ĭnh:": 3785,
      "Ġnghiá»ĩn": 3786,
      "ĪNH": 3787,
      "Ġ47": 3788,
      "ĠMich": 3789,
      "ĠNHÃĤN": 3790,
      "ĠbÃ¢y": 3791,
      "CÆ¡": 3792,
      "Ġ08": 3793,
      "ĠnÃ©m": 3794,
      "ĠWill": 3795,
      "eal": 3796,
      "ĠTrá»ĭ": 3797,
      "Ġxá»©ng": 3798,
      "Ġbáº£y": 3799,
      "ĠHCM": 3800,
      "°C": 3801,
      "Ġtráº§n": 3802,
      "Ġ{\\": 3803,
      "Ġchá»ĳt": 3804,
      "ĠdÃłn": 3805,
      "Ġkhuyáº¿t": 3806,
      "ĠCo": 3807,
      "Ġ|Ġ": 3808,
      "ons": 3809,
      "ĠPet": 3810,
      "mp": 3811,
      "ĠDanh": 3812,
      "ĠTÃłu": 3813,
      "ĠthoÃ¡i": 3814,
      "ĠlÃ£m": 3815,
      "ĠDÃĤN": 3816,
      "66": 3817,
      "inc": 3818,
      "iel": 3819,
      "ĠHoÃłi": 3820,
      "ĠCP": 3821,
      "ĠCampuchia": 3822,
      "á»Ĺng": 3823,
      "ÄĤ": 3824,
      "-S": 3825,
      "Nguá»ĵn": 3826,
      "ĠBer": 3827,
      "Ġxáº¿": 3828,
      "ille": 3829,
      "Giá»": 3830,
      "ĠBá»ĵ": 3831,
      "ano": 3832,
      "31": 3833,
      "Ġnang": 3834,
      "As": 3835,
      "https://www": 3836,
      "go": 3837,
      "ĠYou": 3838,
      "oma": 3839,
      "optera": 3840,
      "NguyÃªn": 3841,
      "Ġ<": 3842,
      "ĠWe": 3843,
      "ĠgiÃ¢y": 3844,
      "ĠNá»¯": 3845,
      "ĠTá»ĪNH": 3846,
      "ĠtrÃł": 3847,
      "raz": 3848,
      "TVT": 3849,
      "ĠlÃ£ng": 3850,
      "ĠtÃ¢n": 3851,
      "/0": 3852,
      "AT": 3853,
      "ll": 3854,
      "ĠQuá»³nh": 3855,
      "Thu": 3856,
      "ham": 3857,
      "Ġgl": 3858,
      "97": 3859,
      "ĠKar": 3860,
      "ited": 3861,
      "Ġ\"K": 3862,
      "ĠÄĳá»ĵng/l": 3863,
      "rich": 3864,
      "Ġas": 3865,
      "ĠNháº¥t": 3866,
      "Ġháº§m": 3867,
      "Ġ\"TÃ´i": 3868,
      "Ġmen": 3869,
      "ery": 3870,
      "Phone": 3871,
      "ment": 3872,
      "Ġláº¡m": 3873,
      "ild": 3874,
      "cel": 3875,
      "Ġvá»Ŀi": 3876,
      "ĠSal": 3877,
      "Ġsá»£i": 3878,
      "ĠBáº¡ch": 3879,
      "ĠCLB": 3880,
      "ee": 3881,
      "ÄĲá»ĵng": 3882,
      "ĠÄĲÄĥng": 3883,
      "-10": 3884,
      "yo": 3885,
      "Ġbáº¿n": 3886,
      "Ġ400": 3887,
      "ole": 3888,
      "ĠCam": 3889,
      "ĠdÆ°á»Ŀng": 3890,
      "Ġcá»ķng": 3891,
      "ThÃłnh": 3892,
      "ĠSong": 3893,
      "ida": 3894,
      "Ġ1:": 3895,
      "ĠmÆ°á»Ŀi": 3896,
      "oe": 3897,
      "Cuá»Ļc": 3898,
      "sch": 3899,
      "ĠIsrael": 3900,
      "inn": 3901,
      "Ġtriá»ĩt": 3902,
      "ĠtÃŃ": 3903,
      "Ġgá»įn": 3904,
      "ĠHáº¡nh": 3905,
      "ChÃºng": 3906,
      "/nÄĥm": 3907,
      "ĠCovid": 3908,
      "Ġkg": 3909,
      "ĠÄĳáº¡p": 3910,
      "ĠTÃ¹ng": 3911,
      "ĠÄĳá»±ng": 3912,
      "ops": 3913,
      "ĠDav": 3914,
      "įt": 3915,
      "count": 3916,
      "ĠbÃ¡m": 3917,
      "ĠCÃ¡t": 3918,
      "Ġngá»¥": 3919,
      "to": 3920,
      "ngton": 3921,
      "ÌĢn": 3922,
      "ĠCáº©m": 3923,
      "uel": 3924,
      "ĠngÆ°á»Ŀi/kmÂ²": 3925,
      "ĠchÃ¬m": 3926,
      "Ġláº§m": 3927,
      "-n": 3928,
      "Ġmáº§m": 3929,
      "ĠCA": 3930,
      "ĠMi": 3931,
      "ĠLÃ£nh": 3932,
      "ĠtÃª": 3933,
      "ĠBÃ¡": 3934,
      "/01": 3935,
      "Ġbá»¥i": 3936,
      "Ġcá»¡": 3937,
      "trong": 3938,
      "Ġráº»": 3939,
      "Ġná»ģ": 3940,
      "Ġhá»ĳi": 3941,
      "58": 3942,
      "Ġkhiáº¿u": 3943,
      "ĠmÃ¢y": 3944,
      "Video": 3945,
      "Ġbuá»ĵng": 3946,
      "49": 3947,
      "Ìģn": 3948,
      "ĠCr": 3949,
      "ĠCa": 3950,
      "má»Ļt": 3951,
      "Ġtháº¯t": 3952,
      "Ġgiáº¥u": 3953,
      "UYáº¾T": 3954,
      "-V": 3955,
      "43": 3956,
      "Ġ...": 3957,
      "Ġsoi": 3958,
      "ĠcÃ´n": 3959,
      "NhÆ°": 3960,
      "-ph": 3961,
      "ĠdÃŃnh": 3962,
      "Ngay": 3963,
      "Ġ07": 3964,
      "ĠÄĳiá»ĩp": 3965,
      "Ġlá»ĵng": 3966,
      "Ġ100%": 3967,
      "ĠsÃºt": 3968,
      "Ar": 3969,
      "ĠKiÃªn": 3970,
      "Ġhuynh": 3971,
      "ora": 3972,
      "ĠbÃ¹ng": 3973,
      "ĠkhÆ¡i": 3974,
      "ÄĲÃ¡p": 3975,
      "Ġbá»Ľt": 3976,
      "ĠÄĲiá»ĥn": 3977,
      "ĠTTHC": 3978,
      "Nguyá»ħn": 3979,
      "ima": 3980,
      "ĠGiÃ¡": 3981,
      "ĠChar": 3982,
      "ĠbÆ°á»Ľ": 3983,
      "Ġtáº§n": 3984,
      ",Ċ": 3985,
      "ime": 3986,
      "ney": 3987,
      "ĠDung": 3988,
      "ĠlÃ£o": 3989,
      "ĠVi": 3990,
      "ĠCN": 3991,
      "Ġmá»ĳc": 3992,
      "ĠKiáº¿n": 3993,
      "eria": 3994,
      "ĠmÃ¬": 3995,
      "ĠchÃºc": 3996,
      "erc": 3997,
      "ĠtrÃłng": 3998,
      "áº¬": 3999,
      "Ìģng": 4000,
      "ĠVÃŃ": 4001,
      "Ġxinh": 4002,
      "ĠOs": 4003,
      "ĠchÃ©p": 4004,
      "ĠdÃ¡m": 4005,
      "ĠÄĲáº¯k": 4006,
      "Ġngá»įn": 4007,
      "QH": 4008,
      "ĠSG": 4009,
      "Ġ\"nh": 4010,
      "Ġ2:": 4011,
      "áº«m": 4012,
      "88": 4013,
      "Ġtam": 4014,
      "hitcount": 4015,
      "Bá»ĭ": 4016,
      "ĠMau": 4017,
      "ĠthÃ¡nh": 4018,
      "Ġhá»©a": 4019,
      "3%": 4020,
      "Ġ1998": 4021,
      "ĠChamp": 4022,
      "ĠsÃ¡p": 4023,
      "á»Ĳ": 4024,
      "Ġkhá»ķng": 4025,
      "ĠTo": 4026,
      "ĠthÃŃch:": 4027,
      "Ġ\"d": 4028,
      "Ġgo": 4029,
      "ĠWal": 4030,
      "ĠÃ¡m": 4031,
      "Ġ1980": 4032,
      "ĠÃģo": 4033,
      "ashington": 4034,
      "ba": 4035,
      "42": 4036,
      "ĠsÃ´i": 4037,
      "ĠHiáº¿n": 4038,
      "Ġráº±ng:": 4039,
      "ĠnÃ¢u": 4040,
      "Ġkhá»©": 4041,
      "Ġmiáº¿ng": 4042,
      "ĠCovid-19": 4043,
      "ĠCT": 4044,
      "Ġngá»Ļ": 4045,
      "Ġniá»ĩu": 4046,
      "ĠGre": 4047,
      "hay": 4048,
      "{x": 4049,
      "Chiá»ģu": 4050,
      "ĠMá»¥c": 4051,
      "Ġim": 4052,
      "ĠQua": 4053,
      "ĠTráº»": 4054,
      "ĠInternet": 4055,
      "ĠTháº£o": 4056,
      "Khu": 4057,
      "Ġva": 4058,
      "Ġ1997": 4059,
      "Chá»ī": 4060,
      "ĠtÃ´m": 4061,
      "ĠLá»£i": 4062,
      "Ġ46": 4063,
      "TÃªn": 4064,
      "alis": 4065,
      "LÄĲ": 4066,
      "ĠvaÌĢ": 4067,
      "SÃ¡ng": 4068,
      "Ġcá»ĳc": 4069,
      "Cl": 4070,
      "ĠTCN": 4071,
      "áº¢N": 4072,
      "ept": 4073,
      "Ġlá»ĵ": 4074,
      "Ġbá»ĳc": 4075,
      "Æł": 4076,
      "any": 4077,
      "CÃ¹ng": 4078,
      "Ã½t": 4079,
      "ĠÄĳeo": 4080,
      "ĠMc": 4081,
      "res": 4082,
      "eri": 4083,
      "car": 4084,
      "app": 4085,
      "ĠNhi": 4086,
      "ĠCai": 4087,
      "Ġsáº¯m": 4088,
      "Ġhave": 4089,
      "ĠbÆ¡i": 4090,
      "ull": 4091,
      "ĠÄĳÃª": 4092,
      "}}{{": 4093,
      "ĠtÃ¡m": 4094,
      "ĠngÃ³n": 4095,
      "Ġ1991": 4096,
      "Ġthat": 4097,
      "Ìīa": 4098,
      "Ġlá»įt": 4099,
      "ĠvÆ°á»Ľng": 4100,
      "NhÃ¢n": 4101,
      "Ġtá»ĳn": 4102,
      "{1": 4103,
      "57": 4104,
      "ĠMos": 4105,
      "ĠkiÃªm": 4106,
      "áº¢nh:": 4107,
      "Ġwas": 4108,
      "ĠHÆ°á»Ľng": 4109,
      "cÃ³": 4110,
      "burg": 4111,
      "ĠbÃ´ng": 4112,
      "ĠsÆ¡n": 4113,
      "ene": 4114,
      "ÅŁ": 4115,
      "ĠLÃł": 4116,
      "2%": 4117,
      "/tin-tuc/thong-tin-suc-khoe": 4118,
      "á»Ģ": 4119,
      "Ġ)": 4120,
      "Ġmuá»Ļn": 4121,
      "Ġ\\left": 4122,
      "ĠTÃªn": 4123,
      "omm": 4124,
      "/2013": 4125,
      "Ġthuáº§n": 4126,
      "ean": 4127,
      "ĠHÆ¡n": 4128,
      "asil": 4129,
      "ĠMor": 4130,
      "Ġ50%": 4131,
      "Ġnháº¯n": 4132,
      "ars": 4133,
      "ĠdÃ²": 4134,
      "ĠHiáº¿u": 4135,
      "Ġab": 4136,
      "Ġtrá»Ļn": 4137,
      "ĠMÃ´ng": 4138,
      "Ġsá»±:": 4139,
      "ĠdÃ£": 4140,
      "/ngÃły": 4141,
      "Ġchuá»Ļt": 4142,
      "ĠSu": 4143,
      "PhÃ¢n": 4144,
      "ĠWashington": 4145,
      "Æ¯á»": 4146,
      "Ġtá»§y": 4147,
      "Ġ1992": 4148,
      "/NQ": 4149,
      "ĠdÃ£y": 4150,
      "\\\\\\": 4151,
      "ĠÄĳÃ³i": 4152,
      "ĠtrÆ°a": 4153,
      "es\"": 4154,
      "Ban": 4155,
      "isc": 4156,
      "ĠPer": 4157,
      "ins": 4158,
      "Ġthá»Ńa": 4159,
      "AR": 4160,
      "aya": 4161,
      "ĠThá»«a": 4162,
      "Ġbi": 4163,
      "96": 4164,
      "Ġyáº¿t": 4165,
      "Ġbá»įc": 4166,
      "iver": 4167,
      "iforn": 4168,
      "ĠLy": 4169,
      "ĠHuyá»ģn": 4170,
      "ĠgiÃ¡n": 4171,
      "Ġar": 4172,
      "Ġshow": 4173,
      "uss": 4174,
      "ÄĲáº·c": 4175,
      "ĠlÃ²": 4176,
      "Ġ1995": 4177,
      "?)Ċ": 4178,
      "Ġquyá»ĥn": 4179,
      "ĠHuyá»ĩn": 4180,
      "Ġbáº¿p": 4181,
      "uld": 4182,
      "ĠAustr": 4183,
      "ĠÄĳá»Ĺ": 4184,
      "Cá»¥": 4185,
      "ĠNor": 4186,
      "ĠmÆ°á»£n": 4187,
      "ĠlÃ´i": 4188,
      "ĠiPhone": 4189,
      "ĠNGH": 4190,
      "tain": 4191,
      "ĠLáº¡c": 4192,
      "4%": 4193,
      "ĠViÃªn": 4194,
      "ĠnhÃłng": 4195,
      "M:": 4196,
      "Ġwe": 4197,
      "ĠLá»¥c": 4198,
      "ĠkÄ©": 4199,
      "Vá»¥": 4200,
      "ĠCuá»ĳi": 4201,
      "Ġtiáº¿c": 4202,
      "ĠCÃ¡i": 4203,
      "aj": 4204,
      "ĠKr": 4205,
      "ĠQuá»¹": 4206,
      "Ġáº£o": 4207,
      "ĠthÆ¡m": 4208,
      "pt": 4209,
      "ĠTham": 4210,
      "41": 4211,
      "lad": 4212,
      "ĠdÃ¢u": 4213,
      "Ġchinh": 4214,
      "XX": 4215,
      "Ġ1996": 4216,
      "oo": 4217,
      "Ġong": 4218,
      "Ġthoáº£i": 4219,
      "eck": 4220,
      "ĠXuyÃªn": 4221,
      "ĠCÃł": 4222,
      "Ġná»Ł": 4223,
      "ĠÄĳáº¥y": 4224,
      "sea": 4225,
      "ĠSÄ©": 4226,
      "Ġ[[": 4227,
      "ĠHáº§u": 4228,
      "ĠHÃ£y": 4229,
      "ĠAlex": 4230,
      "tron": 4231,
      "ĠQuÃ¡": 4232,
      "CÃ´": 4233,
      "Ġ65": 4234,
      "Ġdáº·m": 4235,
      "BS": 4236,
      "ĠÄĲÆ¡n": 4237,
      "TM": 4238,
      "ĠGeor": 4239,
      "ĠgiÆ°á»Ŀng": 4240,
      "ĠÄĳá»ĵi": 4241,
      "ĠBáº¿n": 4242,
      "ĠCá»Ń": 4243,
      "ĠÄĳÃ¡y": 4244,
      "ĠÄĲan": 4245,
      "Ġ1993": 4246,
      "ĠPhá»ķ": 4247,
      "ĠTÃº": 4248,
      "Ġvá»Ł": 4249,
      "ĠFacebook": 4250,
      "Ġ1945": 4251,
      "ÃĶNG": 4252,
      "Ġphu": 4253,
      "Ġháº¡ch": 4254,
      "br": 4255,
      "Ġcm": 4256,
      "ĠMil": 4257,
      "Ġlui": 4258,
      "ĠVáºŃy": 4259,
      "ĠgiáºŃn": 4260,
      "ward": 4261,
      "Ġhoan": 4262,
      "ĠhÆ°u": 4263,
      "Ġsay": 4264,
      "ĠOr": 4265,
      "ifornia": 4266,
      "ĠEU": 4267,
      "ĠTá»ĳ": 4268,
      "9%": 4269,
      "Ġsan": 4270,
      "ĠIV": 4271,
      "TÃŃnh": 4272,
      "Ná»Ļi": 4273,
      "Ġcá»§ng": 4274,
      "ChÃŃnh": 4275,
      "ĠÄĲT": 4276,
      "-P": 4277,
      "ĠThÄĥng": 4278,
      "Ãį": 4279,
      "Ġáº¢nh": 4280,
      "ĠcuÌīa": 4281,
      "ory": 4282,
      "ĠPol": 4283,
      "ĠChung": 4284,
      "Ġmy": 4285,
      "Ġfl": 4286,
      "ĠUkraine": 4287,
      "ĠHáº±ng": 4288,
      "ĠNe": 4289,
      "ĠBang": 4290,
      "Ġmá»ĵ": 4291,
      "ĠNghiÃªn": 4292,
      "ĠbÃłng": 4293,
      "ĠbÃ³n": 4294,
      "-h": 4295,
      "85": 4296,
      "Ġhung": 4297,
      "pha": 4298,
      "ĠÃ¡i": 4299,
      "-9": 4300,
      "ĠSl": 4301,
      "Ã¹n": 4302,
      "Ġxoay": 4303,
      "own": 4304,
      "Ġ\"tr": 4305,
      "Pháº§n": 4306,
      "o\"": 4307,
      "Ġhá»¥t": 4308,
      "Tiá»ĥu": 4309,
      "ĠTá»ĳng": 4310,
      "Ġchá»ī:": 4311,
      "ĠmÃ³c": 4312,
      "oon": 4313,
      "ĠÃ´m": 4314,
      "Ġ1975": 4315,
      "oáº¡n": 4316,
      "HÃ¬nh": 4317,
      "Æ°Æ¡n": 4318,
      "ĠApple": 4319,
      "ĠSao": 4320,
      "Ġ\"F": 4321,
      "ĠrÃªu": 4322,
      "ĠbÃºt": 4323,
      "ĠCháº¥p": 4324,
      "Ġvan": 4325,
      "Ġ55": 4326,
      "giá»": 4327,
      "Lá»±a": 4328,
      "ĠgÃ£y": 4329,
      "ĠTrinh": 4330,
      "Ġhorm": 4331,
      "âĢ¢": 4332,
      "ĠCor": 4333,
      "ĠXÃ©t": 4334,
      "ĠthÃ´": 4335,
      "ĠCalifornia": 4336,
      "/t": 4337,
      "Ġ1994": 4338,
      "ĠBen": 4339,
      "yt": 4340,
      "ĠTHÃĬ": 4341,
      "Ġruá»ĵi": 4342,
      "ĠMu": 4343,
      "Ġtáº©y": 4344,
      "ĠKhoáº£ng": 4345,
      "ĠÄĳá»«ng": 4346,
      "ĨĴ": 4347,
      "ĠDá»ĭch": 4348,
      "ĠTháº§n": 4349,
      "ĠHymen": 4350,
      "ĠtÃŃm": 4351,
      "Ġbáº¯p": 4352,
      "ĠÄĳá»¥": 4353,
      "ĠGTVT": 4354,
      "we": 4355,
      "ĠcÆ°á»¡ng": 4356,
      "Ġyour": 4357,
      "Ġmáº£ng": 4358,
      "Ġngá»£i": 4359,
      "ĠHol": 4360,
      "ĠMac": 4361,
      "ĠVI": 4362,
      "ĠPhÆ°á»£ng": 4363,
      "ense": 4364,
      "Nam": 4365,
      "Ġ56": 4366,
      "ĠSGK": 4367,
      "Há»Ļi": 4368,
      "AND": 4369,
      "Ì£i": 4370,
      "Ġláº·p": 4371,
      "ĠngoÃ¡i": 4372,
      "ĠNhÃ³m": 4373,
      "Ġphe": 4374,
      "------": 4375,
      "77": 4376,
      "Ġ\"E": 4377,
      "ĠhoÃ£n": 4378,
      "ony": 4379,
      "ign": 4380,
      "Ġváº¯c": 4381,
      "outh": 4382,
      "Ġvoi": 4383,
      "Ġláº¥n": 4384,
      "ĠLat": 4385,
      "ÄĲá»ģ": 4386,
      "Ġtuá»ĩ": 4387,
      "VÄĥn": 4388,
      "Ġleo": 4389,
      "ĠIS": 4390,
      "ĠÄĲiá»ĥm": 4391,
      "ĠCHá»¦": 4392,
      "ĠTiÃªu": 4393,
      "ĠSm": 4394,
      "erb": 4395,
      "Ġváº£i": 4396,
      "ĠmÃ³ng": 4397,
      "Ġbá»įn": 4398,
      "Ġcá»±": 4399,
      "ĠSÃ´ng": 4400,
      "ĠkhÃ¡i": 4401,
      "ĠTok": 4402,
      "NE": 4403,
      "Ġnáº¡i": 4404,
      "rit": 4405,
      "Ã§": 4406,
      "ĠTHÃĬM:": 4407,
      "hen": 4408,
      "ĠAg": 4409,
      "Kiáº¿n": 4410,
      "ĠtrÃ´i": 4411,
      "ĠhÃł": 4412,
      "ĠlÆ°á»¡i": 4413,
      "li": 4414,
      "ĠNgÃ£i": 4415,
      "ski": 4416,
      "ĠPhÃ¢n": 4417,
      "Ġláº·ng": 4418,
      "eta": 4419,
      "ĠAf": 4420,
      "ĠLá»ĭch": 4421,
      "ĠUnited": 4422,
      "Ġgai": 4423,
      "atch": 4424,
      "Æ°á»Ľt": 4425,
      "ĠVin": 4426,
      "pa": 4427,
      "ĠkhÃ´i": 4428,
      "Ġthá»©c:": 4429,
      "Ġ2030": 4430,
      "ji": 4431,
      "ĠOb": 4432,
      "anc": 4433,
      "TH": 4434,
      "enc": 4435,
      "ĺI": 4436,
      "\\dfrac": 4437,
      "Ġ2025": 4438,
      "Ġmá»ıng": 4439,
      "ĠKiá»ģu": 4440,
      "-ch": 4441,
      "Ġsc": 4442,
      "ĠláºŃu": 4443,
      "05": 4444,
      "Ġ1970": 4445,
      "ĠÄĲá»Ļng": 4446,
      "ĠThÃºy": 4447,
      "ĠTS": 4448,
      "ĠkhÃ¡t": 4449,
      "ĠsÆ°ng": 4450,
      "Ġ\"k": 4451,
      "ĠSe": 4452,
      "Ġvá»£t": 4453,
      "Ġ\\frac": 4454,
      "ĠthÃ¢m": 4455,
      "á»ĭn": 4456,
      "iat": 4457,
      "ondon": 4458,
      "ĠSÃ¢n": 4459,
      "ĠHIV": 4460,
      "Ġcarb": 4461,
      "ĠCá»¦": 4462,
      "ĠKÃ´ng": 4463,
      "Ġcá»ĳng": 4464,
      "ĠCá»¦A": 4465,
      "lymp": 4466,
      "ĠBay": 4467,
      "Ġmm": 4468,
      "ĠReal": 4469,
      "ĠTÃ´": 4470,
      "ĠBur": 4471,
      "Ġ120": 4472,
      "aris": 4473,
      "ĠCÃ¡": 4474,
      "Ġvá»ĭnh": 4475,
      "Ġranh": 4476,
      "elsea": 4477,
      "ĠAustralia": 4478,
      "Ġchuyá»ģn": 4479,
      "ĠthÃ¹ng": 4480,
      "69": 4481,
      "ÃĢNH": 4482,
      "ois": 4483,
      "ĠÃĶ": 4484,
      "huyá»ĩn": 4485,
      "ats": 4486,
      "ĠAt": 4487,
      "bia": 4488,
      "ĠmÃ¹": 4489,
      "ĠÃ¡n:": 4490,
      "mg": 4491,
      "Ġnguyá»ĩt": 4492,
      "ade": 4493,
      "Ġnháº¡t": 4494,
      "pe": 4495,
      "Ġhoáº¡i": 4496,
      "ael": 4497,
      "Ġme": 4498,
      "Ġcáº©n": 4499,
      "Ġnáº¡p": 4500,
      "ĠÄĳáº¯p": 4501,
      "ĠTV": 4502,
      "GiÃ¡": 4503,
      "ĠThÃ¡p": 4504,
      "ĠMáº¹": 4505,
      "ĠNguá»ĵn": 4506,
      "Ġgáº¡ch": 4507,
      "Ã¬a": 4508,
      "à¸": 4509,
      "ĠHung": 4510,
      "ĠHiá»ģn": 4511,
      "Ġlá»Ł": 4512,
      "Ġgá»ĳi": 4513,
      "ko": 4514,
      "á»¨": 4515,
      "ĠLiÃªu": 4516,
      "Ġmg": 4517,
      "Ġvang": 4518,
      "á»¤C": 4519,
      "ÅĤ": 4520,
      "ĠPhá»¥c": 4521,
      "UB": 4522,
      "Ġthá»£": 4523,
      "ĠThiáº¿t": 4524,
      "ĠduyÃªn": 4525,
      "ĠMon": 4526,
      "ÄĲÆ°á»Ŀng": 4527,
      "gent": 4528,
      "Ġtiá»ħn": 4529,
      "..Ċ": 4530,
      "ĠxÆ°á»Łng": 4531,
      "ĠNÆ°á»Ľc": 4532,
      "ĠhÃ²n": 4533,
      "Ġháº£o": 4534,
      "Ġnháº§m": 4535,
      "ĠThá»ĭnh": 4536,
      "ĠxÆ°ng": 4537,
      "ters": 4538,
      "its": 4539,
      "ĠnÃºt": 4540,
      "ĠdÃ¢ng": 4541,
      "62": 4542,
      "8%": 4543,
      "ĠTháº¡nh": 4544,
      "DA": 4545,
      "ĠÄĳáº¯t": 4546,
      "ĠGl": 4547,
      "illa": 4548,
      "Ġtrá»«ng": 4549,
      "ifolia": 4550,
      "Ġclip": 4551,
      "87": 4552,
      "red": 4553,
      "Ġháº¯n": 4554,
      "aint": 4555,
      "Ġ1989": 4556,
      "ĠHymenoptera": 4557,
      "3}": 4558,
      "Ġthá»į": 4559,
      "Ġ\"W": 4560,
      "ĠKhoáº£n": 4561,
      "Ġ;": 4562,
      "Ġchá»«ng": 4563,
      "Ġkhoe": 4564,
      "ford": 4565,
      "ĠThÃ¢n": 4566,
      "bo": 4567,
      "bank": 4568,
      "Ġtop": 4569,
      "Ġsh": 4570,
      "ĠVen": 4571,
      "SS": 4572,
      "ĠbÆ°á»Ľm": 4573,
      "ĠÄĳÃł": 4574,
      "ows": 4575,
      "ĠLondon": 4576,
      "ĠTrÄĥng": 4577,
      "Ġxáº£": 4578,
      "EC": 4579,
      "ĠLam": 4580,
      "ĠVal": 4581,
      "atum": 4582,
      "ĠNhiá»ĩt": 4583,
      "1%": 4584,
      "Ġbá»ıng": 4585,
      "Ġsá»ĳc": 4586,
      "-12": 4587,
      "-L": 4588,
      "ĠCung": 4589,
      "Ã²m": 4590,
      "ĠOlymp": 4591,
      "ĠHuá»ĩ": 4592,
      "razil": 4593,
      "ĠRÃªu": 4594,
      "Ġdáº¯t": 4595,
      "ĠRo": 4596,
      "Ġdá»Ļi": 4597,
      "ĠbÆ¡m": 4598,
      "ĠkhÃ¢u": 4599,
      "uck": 4600,
      "Ġ1960": 4601,
      "er\"": 4602,
      "DC": 4603,
      "ĠChÃºa": 4604,
      "ĠMÃ¹a": 4605,
      "Ġ10%": 4606,
      "ĠEx": 4607,
      "Ġmáº¡o": 4608,
      "Ġtha": 4609,
      "Ġsch": 4610,
      "ĠBV": 4611,
      "6%": 4612,
      "ational": 4613,
      "oto": 4614,
      "raq": 4615,
      "phone": 4616,
      "QUYáº¾T": 4617,
      "Ġchung:": 4618,
      "que": 4619,
      "awa": 4620,
      "{\\": 4621,
      "ĠTÆ°Æ¡ng": 4622,
      "omel": 4623,
      "ĠViáº¿t": 4624,
      "ĠDiá»ħn": 4625,
      "63": 4626,
      "egin": 4627,
      "ĠnhÃ©": 4628,
      "ĠVietnam": 4629,
      "Ãĥ": 4630,
      "tÃ´": 4631,
      "Ġruá»Ļng": 4632,
      "ĠBu": 4633,
      "ĠQuyá»ģn": 4634,
      "Ġacid": 4635,
      "ĠChampions": 4636,
      "Ġnáº¿p": 4637,
      "ame": 4638,
      "Ì£ng": 4639,
      "icus": 4640,
      "DÃ¹": 4641,
      "alk": 4642,
      "ĠÆ°a": 4643,
      "con": 4644,
      "á»µ": 4645,
      "Ġhiá»ĥn": 4646,
      "64": 4647,
      "ĠNghi": 4648,
      "Ġ42": 4649,
      "Ġcalo": 4650,
      "PhÃ³": 4651,
      "ĠLá»ĩ": 4652,
      "ĠWilliam": 4653,
      "KH": 4654,
      "Cho": 4655,
      "elle": 4656,
      "ĠMed": 4657,
      "Ġ75": 4658,
      "Ġ\"ph": 4659,
      "exico": 4660,
      "Ġcong": 4661,
      "ther": 4662,
      "Ġ\"ng": 4663,
      "ĠquÃ©t": 4664,
      "ĠKá»¹": 4665,
      "/h": 4666,
      "ĠSeo": 4667,
      "ĠkhÃ³i": 4668,
      "Ġtháº¡ch": 4669,
      "ita": 4670,
      "ĠgiÃły": 4671,
      "rag": 4672,
      "ĠMe": 4673,
      "sky": 4674,
      "CA": 4675,
      "Ġ1988": 4676,
      "ĠTrá»Ŀi": 4677,
      "ĠlÄĥng": 4678,
      "af": 4679,
      "DÃ¢n": 4680,
      "Ġtá»§": 4681,
      "ĠHen": 4682,
      "eople": 4683,
      "ire": 4684,
      "ĠDoanh": 4685,
      "Ġtá»±a": 4686,
      "ĠÃºy": 4687,
      "Ġz": 4688,
      "ĠChrys": 4689,
      "Ġfrom": 4690,
      "yg": 4691,
      "náº¿u": 4692,
      "Ġhang": 4693,
      "ogle": 4694,
      "Ġdá»ĭch:": 4695,
      "Ġngáº¡ch": 4696,
      "ĠlÆ°á»¡ng": 4697,
      "ĠTÃ¡c": 4698,
      "Ġká»ī": 4699,
      "89": 4700,
      "ĠbÃ¡t": 4701,
      "ĠÄĳá»±c": 4702,
      "Ġmá»Ŀ": 4703,
      "che": 4704,
      "ĠThiá»ĩn": 4705,
      "ĠLib": 4706,
      "y\"": 4707,
      "ĠAF": 4708,
      "á»ĭt": 4709,
      "NA": 4710,
      "ÃĬN": 4711,
      "MT": 4712,
      "ĠQU": 4713,
      "202": 4714,
      "Tiáº¿p": 4715,
      "59": 4716,
      "ĠRáºŃp": 4717,
      "NhÆ°ng": 4718,
      "Ġhá»Ł": 4719,
      "iá»ģng": 4720,
      "Sá»Ń": 4721,
      "hip": 4722,
      "-ng": 4723,
      "YT": 4724,
      "Ġbl": 4725,
      "ise": 4726,
      "Ġtiá»ĩc": 4727,
      "Ġti": 4728,
      "ĠViÃªm": 4729,
      "Ä¨": 4730,
      "ĠPaul": 4731,
      "Ġ600": 4732,
      "Ġdá»¡": 4733,
      "hoáº·c": 4734,
      "ĠKon": 4735,
      "ĠChelsea": 4736,
      "ĠÄĳáº§m": 4737,
      "Ġpol": 4738,
      "Ġhe": 4739,
      "7%": 4740,
      "ĠBrazil": 4741,
      "TTg": 4742,
      "Tráº»": 4743,
      "ĠVua": 4744,
      "CB": 4745,
      "/2012": 4746,
      "KT": 4747,
      "do": 4748,
      "DS": 4749,
      "1/": 4750,
      "á»«u": 4751,
      "UNG": 4752,
      "ĠÄĲiá»ģn": 4753,
      "ĠDavid": 4754,
      "ĠOn": 4755,
      "ĠLÃłm": 4756,
      "ĠIraq": 4757,
      "ĠÄĳá»ĵng/lÆ°á»£ng": 4758,
      "ĠÄĲá»Ļc": 4759,
      "ova": 4760,
      "ush": 4761,
      "ĠphÃ¡p:": 4762,
      "tá»«": 4763,
      "erg": 4764,
      "ĠNam;": 4765,
      "Ġdá»Ŀi": 4766,
      "Ġhormone": 4767,
      "sung": 4768,
      "áº¿ch": 4769,
      "300": 4770,
      "Ġngá»Ļt": 4771,
      "ÄŁ": 4772,
      "ĠngÆ¡i": 4773,
      "ĠMexico": 4774,
      "Ġpar": 4775,
      "Ġmá»ĵi": 4776,
      "ĠCáº£ng": 4777,
      "ĠkÃŃ": 4778,
      "Ġpháº³ng": 4779,
      "ĠBHXH": 4780,
      "Ġsm": 4781,
      "dro": 4782,
      "lo": 4783,
      "ĠU23": 4784,
      "ĠWest": 4785,
      "ĠÄĳá»ĵng;": 4786,
      "54": 4787,
      "esc": 4788,
      "Qua": 4789,
      "The": 4790,
      "Ġcanxi": 4791,
      "Ġ1986": 4792,
      "me": 4793,
      "Ġtrinh": 4794,
      "ui": 4795,
      "begin": 4796,
      "ĠsÆ°u": 4797,
      "Ġsá»į": 4798,
      "Ġmáº·n": 4799,
      "Thá»©": 4800,
      "Ġcamera": 4801,
      "ĠVáºŃn": 4802,
      "ĠBo": 4803,
      "oster": 4804,
      "ĠVÃĢ": 4805,
      "Ġhi": 4806,
      "ĠWind": 4807,
      "ĠcÃ³:": 4808,
      "igh": 4809,
      "overrightarrow": 4810,
      "ĠHal": 4811,
      "Má»¹": 4812,
      "ĠkmÂ²": 4813,
      "end{array": 4814,
      "{array}{": 4815,
      "begin{array}{": 4816,
      "ors": 4817,
      "mann": 4818,
      "Ġkáº½m": 4819,
      "hil": 4820,
      "Ġváº¡n": 4821,
      "Ġrá»¥ng": 4822,
      "Ìīi": 4823,
      "Ã©c": 4824,
      "ĠVÃłng": 4825,
      "Right": 4826,
      "EA": 4827,
      "ĠnÆ°á»Ľng": 4828,
      "ĠLou": 4829,
      "Ġre": 4830,
      "ult": 4831,
      "Ġváº¹n": 4832,
      "ĠLáºŃp": 4833,
      "Ġle": 4834,
      "ĠBro": 4835,
      "ĠMin": 4836,
      "danh": 4837,
      "uba": 4838,
      "61": 4839,
      "ĠrÃ©t": 4840,
      "Ac": 4841,
      "áº¬N": 4842,
      "Tráº£": 4843,
      "olf": 4844,
      "Ìģp": 4845,
      "ĠHi": 4846,
      "Rightarrow": 4847,
      "ĠlaÌĢ": 4848,
      "Ġnáº£y": 4849,
      "di": 4850,
      "03": 4851,
      "Táº¡m": 4852,
      "Ġlá»©a": 4853,
      "ĠAngel": 4854,
      "Ġheo": 4855,
      "LÃł": 4856,
      "Ġgu": 4857,
      "CÃ²n": 4858,
      "de": 4859,
      "ĠCu": 4860,
      "ĠThay": 4861,
      "aut": 4862,
      "ĠTrÃŃ": 4863,
      "port": 4864,
      "53": 4865,
      "ĠcÃºm": 4866,
      "ye": 4867,
      "Ì£p": 4868,
      "oria": 4869,
      "Ġ43": 4870,
      "inia": 4871,
      "ĠGrand": 4872,
      "ĠsÃºc": 4873,
      "site": 4874,
      "asc": 4875,
      "á»°C": 4876,
      "ĠTiáº¿ng": 4877,
      "ĠTÆ°á»Ŀng": 4878,
      "air": 4879,
      "yst": 4880,
      "{1}{": 4881,
      "ĠquÃ¡t": 4882,
      "Ho": 4883,
      "ĠCÄĲ": 4884,
      "ĠEuro": 4885,
      "ki": 4886,
      "Ġfan": 4887,
      "ĠÃģnh": 4888,
      "Ġ\"O": 4889,
      "ĠCSGT": 4890,
      "ĠVÅ©ng": 4891,
      "Ġ250": 4892,
      "ulin": 4893,
      "ĠláºŃt": 4894,
      "Ġ59": 4895,
      "Ġrad": 4896,
      "seud": 4897,
      "ĠVIá»Ĩ": 4898,
      "-nh": 4899,
      "ĠTáº§n": 4900,
      "ube": 4901,
      "Ġ1982": 4902,
      "tel": 4903,
      "ĠGiá»Ľi": 4904,
      "Ġ1985": 4905,
      "ĠbuÃ½t": 4906,
      "Xem": 4907,
      "ring": 4908,
      "my": 4909,
      "Ġcáº¥y": 4910,
      "trang": 4911,
      ".Âł": 4912,
      "Ġ1987": 4913,
      "ĠmÅ©": 4914,
      "gentina": 4915,
      "GS": 4916,
      "ĠÄĳiá»ģn": 4917,
      "Ġ\"kh": 4918,
      "rad": 4919,
      "ĠHO": 4920,
      "ĠlÃ¢n": 4921,
      "Ġ\"x": 4922,
      "ides": 4923,
      "Ġphun": 4924,
      "HÃłnh": 4925,
      "\\end{array": 4926,
      "ÌĢnh": 4927,
      "ĠgÃ¬n": 4928,
      "Quan": 4929,
      "ĠbÃ´i": 4930,
      "ĠRobert": 4931,
      "Ġ41": 4932,
      "ĠHiá»ĩu": 4933,
      "ele": 4934,
      "ĠbÆ°u": 4935,
      "ĠÄĳam": 4936,
      "Tá»ķ": 4937,
      "Ġlike": 4938,
      "ĠLiÃªm": 4939,
      "IA": 4940,
      "Ġ\\Rightarrow": 4941,
      "Ġser": 4942,
      "ĠFl": 4943,
      "Ġ20%": 4944,
      "ais": 4945,
      "ĠBrasil": 4946,
      "400": 4947,
      "ĠThuá»ĳc": 4948,
      "ĠTrÃ¢n": 4949,
      "ĠPhá»§": 4950,
      "ĠtrÆ°á»£t": 4951,
      "ĠphÃ¬": 4952,
      "ĠSang": 4953,
      "PL": 4954,
      "ĠTá»·": 4955,
      "ance": 4956,
      "Ġkhá»ĳng": 4957,
      "ria": 4958,
      "\\sqrt": 4959,
      "ĠNgá»¯": 4960,
      "ĠmÃ¨o": 4961,
      "ĠPC": 4962,
      "-20": 4963,
      "ĠTAND": 4964,
      "Ġdáº£i": 4965,
      "ĠJames": 4966,
      "arm": 4967,
      "ks": 4968,
      "aly": 4969,
      "ĠdÃ´ng": 4970,
      "itz": 4971,
      "ĠLee": 4972,
      "ĠJack": 4973,
      "ĠHÃłm": 4974,
      "ĠNS": 4975,
      "ĠdáºŃp": 4976,
      "ĠMas": 4977,
      "on\"": 4978,
      "Ġ\"Tr": 4979,
      "TVQH": 4980,
      "ĠCá»ķng": 4981,
      "OS": 4982,
      "ĠWhat": 4983,
      "ĠMus": 4984,
      "XVN": 4985,
      "Ġngáº¡c": 4986,
      "TáºŃp": 4987,
      "ĠMadrid": 4988,
      "Ġnha": 4989,
      "ĠvÆ°Æ¡n": 4990,
      "ress": 4991,
      "ĠÃģp": 4992,
      "Ġad": 4993,
      "á»ıa": 4994,
      "Ìīn": 4995,
      "TN": 4996,
      "Ġkhoai": 4997,
      "ĠBá»ī": 4998,
      "Ġ58": 4999,
      "BÃ¡o": 5000,
      "ĠRom": 5001,
      "nay": 5002,
      "ĠGoogle": 5003,
      "lÃł": 5004,
      "ĠlÃ¹i": 5005,
      "Ġnot": 5006,
      "Huyá»ĩn": 5007,
      "ĠTN": 5008,
      "acc": 5009,
      "Há»ĩ": 5010,
      "92": 5011,
      "ĠBAN": 5012,
      "ja": 5013,
      "ĠGen": 5014,
      "ĠCháº¥t": 5015,
      "78": 5016,
      "ĠYáº¿n": 5017,
      "Ġláº¥p": 5018,
      "der": 5019,
      "iidae": 5020,
      "Ġchai": 5021,
      "600": 5022,
      "ÃĿ": 5023,
      "\";": 5024,
      "á»Ĭ": 5025,
      "ents": 5026,
      "omelidae": 5027,
      "amil": 5028,
      "ĠChrysomelidae": 5029,
      "ĠBÄĲ": 5030,
      "ĠnghiÃªng": 5031,
      "za": 5032,
      "Ġ\\dfrac{{": 5033,
      "ĠnÃ´": 5034,
      "á»ĺI": 5035,
      "bert": 5036,
      "Ġ1984": 5037,
      "odes": 5038,
      "GD": 5039,
      "Ġkhoang": 5040,
      "Khoáº£ng": 5041,
      "ÄĲá»Ļi": 5042,
      "ĠQL": 5043,
      "á»ĳp": 5044,
      "Left": 5045,
      "vÃł": 5046,
      "Ġcor": 5047,
      "ĠchÃ¢m": 5048,
      "ĠDonald": 5049,
      "ĠxÃ¡m": 5050,
      "ĠvÃ¡y": 5051,
      "Ġdá»ĳc": 5052,
      "cc": 5053,
      "Ġli": 5054,
      "ĠAnh:": 5055,
      "Ġ\"g": 5056,
      "ĠKháº¯c": 5057,
      "Ġ52": 5058,
      "04": 5059,
      "Ġte": 5060,
      "ÄĲáº§u": 5061,
      "Leftrightarrow": 5062,
      "á»§a": 5063,
      "ĠSÃ¡ng": 5064,
      "ĠtrÃ¢u": 5065,
      "rat": 5066,
      "arp": 5067,
      "&ÄĲT": 5068,
      "-benh": 5069,
      "erson": 5070,
      "DL": 5071,
      "Ġtrá»į": 5072,
      "ets": 5073,
      "ĠÃĤm": 5074,
      "Ġen": 5075,
      "senal": 5076,
      "Ġ3:": 5077,
      "ĠÄĳÃ¡i": 5078,
      "Ġcáº¡n": 5079,
      "08": 5080,
      "aka": 5081,
      "ĠCáº¥p": 5082,
      "Ġsuá»ĳi": 5083,
      "Ľn": 5084,
      "Ġdá»įn": 5085,
      "ck": 5086,
      "ĠTom": 5087,
      "ĠAP": 5088,
      "ĠChÃ¢n": 5089,
      "ĠArgentina": 5090,
      "ĠSÃ³c": 5091,
      "ĠLáº¡ng": 5092,
      "Lo": 5093,
      "ĠMel": 5094,
      "ĠChrist": 5095,
      "ĠcáºŃy": 5096,
      "roup": 5097,
      "Ġbá»Ļi": 5098,
      "Ġvá»Ļi": 5099,
      "Ba": 5100,
      "ander": 5101,
      "/02": 5102,
      ".,": 5103,
      "Ġdá»ĭu": 5104,
      "of": 5105,
      "ĠÐ": 5106,
      "ĠHer": 5107,
      "Ġins": 5108,
      "ence": 5109,
      "ling": 5110,
      "ĠDáº§u": 5111,
      "Ġsá»±;": 5112,
      "pool": 5113,
      "ze": 5114,
      "ĠchÃ¡n": 5115,
      "aus": 5116,
      "Ġthá»±": 5117,
      "ĠSant": 5118,
      "Ġngá»©a": 5119,
      "ics": 5120,
      "eph": 5121,
      "ger": 5122,
      "ĠgÃ¡nh": 5123,
      "ĠngÆ°ng": 5124,
      "XÃ©t": 5125,
      "Ġabout": 5126,
      "Ġdá»¥:": 5127,
      "ĠâĨĴ": 5128,
      "ĠLoáº¡i": 5129,
      "agen": 5130,
      "Thanh": 5131,
      "ych": 5132,
      "ĠCha": 5133,
      "utin": 5134,
      "ĠChá»©ng": 5135,
      "ĠLuÃ¢n": 5136,
      "ĠTÃ¬m": 5137,
      "á»Ĩ": 5138,
      "Ġtá»±u": 5139,
      "52": 5140,
      "-11": 5141,
      "Gia": 5142,
      "TX": 5143,
      "56": 5144,
      "ĠIl": 5145,
      "/2010": 5146,
      "ĠÃĹ": 5147,
      "ila": 5148,
      "Ġnháº«n": 5149,
      "ĠBol": 5150,
      "ĠVá»ĭ": 5151,
      "ĠCap": 5152,
      "ĠPhÃ¹ng": 5153,
      "ĠÄĳá»©t": 5154,
      "ĠRich": 5155,
      "ĠMiss": 5156,
      "ese": 5157,
      "Ġtrá»įn": 5158,
      "ĠBá»ĳ": 5159,
      "ĠBáº¡c": 5160,
      "ĠSw": 5161,
      "Â°": 5162,
      "NÆ¡i": 5163,
      "Ġcáº¯n": 5164,
      "ĠÄĲáº¡t": 5165,
      "Ġ{x": 5166,
      "ĠchÃ´n": 5167,
      "Ġnáº¡": 5168,
      "imon": 5169,
      "Ġcá»«u": 5170,
      "ĠTháº©m": 5171,
      "akh": 5172,
      "ĠTor": 5173,
      "ĠBel": 5174,
      "ĠMay": 5175,
      "Ġhuyá»ģn": 5176,
      "ĠsÆ°á»Ŀn": 5177,
      "ĠRiÃªng": 5178,
      "ĠchiÃªu": 5179,
      "Ġsá»¥p": 5180,
      "=>": 5181,
      "atri": 5182,
      "ĠSáº£n": 5183,
      "....Ċ": 5184,
      "ĠTháºŃm": 5185,
      "ĠBÃŃch": 5186,
      "Ġpin": 5187,
      "Ġmi": 5188,
      "ĠFC": 5189,
      "ĠSamsung": 5190,
      "ĠMÃ´n": 5191,
      "Ġ30%": 5192,
      "ĠchÃ©m": 5193,
      "}{{": 5194,
      "Ġ1979": 5195,
      "Ġtre": 5196,
      "Ġ49": 5197,
      "ĠcháºŃu": 5198,
      "ĠmÃºa": 5199,
      "els": 5200,
      "ĠTokyo": 5201,
      "Ġráº£i": 5202,
      "arg": 5203,
      "áº½n": 5204,
      "Ġbáº©m": 5205,
      "ĠhÃłn": 5206,
      "Viet": 5207,
      "ĠÅ": 5208,
      "amine": 5209,
      "Ġ1983": 5210,
      "07": 5211,
      "Ġ44": 5212,
      "uv": 5213,
      "ÄĲND": 5214,
      "ĠmÃ²n": 5215,
      "Ġ\\Leftrightarrow": 5216,
      "Ġkhoan": 5217,
      "Ġnháº¯m": 5218,
      "-A": 5219,
      "Ġdá»«a": 5220,
      "ĠlÅ©y": 5221,
      "imes": 5222,
      "Báº£n": 5223,
      "ĠnÃ¡t": 5224,
      "ĠCháº©n": 5225,
      "Ġthá»ĥ:": 5226,
      "ĠMic": 5227,
      "Ġnho": 5228,
      "ogl": 5229,
      "tÃªn": 5230,
      "ĠOlympic": 5231,
      "/2011": 5232,
      "oides": 5233,
      "Ġbá»ĥ": 5234,
      "ical": 5235,
      "ĠNews": 5236,
      "Chá»ĭ": 5237,
      "onda": 5238,
      "TÃ¬nh": 5239,
      "Ġtáº¿t": 5240,
      "Ġ!": 5241,
      "800": 5242,
      "ĠlÃŃt": 5243,
      "ĠNo": 5244,
      "ĠMáº¡ch": 5245,
      "aki": 5246,
      "ĠHungary": 5247,
      "ĠquÃ£ng": 5248,
      "Ind": 5249,
      "Ġ1950": 5250,
      "Ġsub": 5251,
      "idaceae": 5252,
      "Ġ1981": 5253,
      "Ġtrá»Ļi": 5254,
      "ĠTin": 5255,
      "ĠthoÃ¡ng": 5256,
      "/2023": 5257,
      "yan": 5258,
      "ĠWil": 5259,
      "ĠWindows": 5260,
      "ĠMark": 5261,
      "ĠchÃªnh": 5262,
      "ĠNÃ³i": 5263,
      "ĠBal": 5264,
      "wa": 5265,
      "ĠThiáº¿n": 5266,
      "UBTVQH": 5267,
      "wood": 5268,
      "ĠbáºŃn": 5269,
      "............": 5270,
      "\\end{array}": 5271,
      "ĠTur": 5272,
      "Ð°": 5273,
      "by": 5274,
      "iem": 5275,
      "oli": 5276,
      "Ġ\"I": 5277,
      "ĠThÃ¹y": 5278,
      "âĢ¦": 5279,
      "Ġcá»ĵn": 5280,
      "is\"": 5281,
      "ĠrÃ¨n": 5282,
      "Quyáº¿t": 5283,
      "ĠTÃŃn": 5284,
      "ÃĮ": 5285,
      "ira": 5286,
      "n't": 5287,
      "LÃ£nh": 5288,
      "eu": 5289,
      "ĠhÃ£i": 5290,
      "ĠHá»ĺI": 5291,
      "VáºŃy": 5292,
      "ĠngÃµ": 5293,
      "ĠEng": 5294,
      "ttps://www": 5295,
      "ĠÃ¢n": 5296,
      "CS": 5297,
      "e-": 5298,
      "âĢĻ": 5299,
      "Ġtriáº¿t": 5300,
      "/QÄĲ-TTg": 5301,
      "ĠXÃĥ": 5302,
      "ĠtrÃ¡ng": 5303,
      "HÃ£y": 5304,
      "Ġelec": 5305,
      "giá»Ŀ": 5306,
      "ĠMáº«u": 5307,
      "Ġ800": 5308,
      "Tham": 5309,
      "anda": 5310,
      "ĠObama": 5311,
      "Ġchanh": 5312,
      "Ġngá»±": 5313,
      "Ġngháº½n": 5314,
      "ĠTe": 5315,
      "Hoa": 5316,
      "ĠCá»Ńu": 5317,
      "theo": 5318,
      "ally": 5319,
      "ĠVá»¤": 5320,
      "gan": 5321,
      "ĠlÆ°á»Ŀng": 5322,
      "ĠVir": 5323,
      "ĠThom": 5324,
      "ÄĲá»įc": 5325,
      "79": 5326,
      "h30": 5327,
      "Ġop": 5328,
      "Ġluá»ĵng": 5329,
      "ĠKhang": 5330,
      "rod": 5331,
      "iverpool": 5332,
      "ĠViá»ħn": 5333,
      "ĠÄĲÃ¡nh": 5334,
      "ĠBKS": 5335,
      "ĠCuba": 5336,
      "inus": 5337,
      "chester": 5338,
      "NháºŃn": 5339,
      "Ġwill": 5340,
      "Ġná»ĳt": 5341,
      "ky": 5342,
      "Ġváº£": 5343,
      "ĠShi": 5344,
      "-T": 5345,
      "Ġhiá»ĩn:": 5346,
      "ĠÃ´tÃ´": 5347,
      "Ġpeople": 5348,
      "ĠâĢĺ": 5349,
      "begin{array}{l": 5350,
      "ĠnÃ²ng": 5351,
      "Ġtáº¡ng": 5352,
      "ivers": 5353,
      "2}}": 5354,
      "Ġ64": 5355,
      "ĠAll": 5356,
      "ĠMag": 5357,
      "ĠVÃ¹ng": 5358,
      "oft": 5359,
      "ield": 5360,
      "Ġ1972": 5361,
      "eter": 5362,
      "ÄĲÆ¡n": 5363,
      "ÌĢu": 5364,
      "Ġsá»ıi": 5365,
      "ĠCty": 5366,
      "ĠcÃ³c": 5367,
      "Ġstr": 5368,
      "ĠNhá»Ŀ": 5369,
      "erus": 5370,
      "Ġwebsite": 5371,
      "Æ°á»Łi": 5372,
      "ĠTÃło": 5373,
      "ĠPhÃ¹": 5374,
      "Ġbáº¥y": 5375,
      "ĠArsenal": 5376,
      "aina": 5377,
      "DI": 5378,
      "Ġchuá»ĵn": 5379,
      "ĠPak": 5380,
      "Ġlam": 5381,
      "ĠNhÆ¡n": 5382,
      "ĠlÆ¡": 5383,
      "51": 5384,
      "Ġ\"khÃ´ng": 5385,
      "Ġkiá»ĩt": 5386,
      "uá»ĳt": 5387,
      "Ġtuyáº¿t": 5388,
      "ĠGeorge": 5389,
      "ĠMyan": 5390,
      "let": 5391,
      "iano": 5392,
      "ĠLÄĥng": 5393,
      "ĠngÃ´": 5394,
      "Ġlá»ģ": 5395,
      "ĠPan": 5396,
      "ĠTop": 5397,
      "ĠFor": 5398,
      "Ġ54": 5399,
      "Ġlá»¥t": 5400,
      "Ġgom": 5401,
      "Quáº£ng": 5402,
      "ĠSouth": 5403,
      "/l": 5404,
      "ĠNAM": 5405,
      "Quy": 5406,
      "Ġ1978": 5407,
      "Ġus": 5408,
      "o-": 5409,
      "arn": 5410,
      "QT": 5411,
      "ĠxÃł": 5412,
      "ĠBÃ¡i": 5413,
      "ĠmÄĥng": 5414,
      "ãĥ": 5415,
      "tic": 5416,
      "rl": 5417,
      "ĠSiÃªu": 5418,
      "ĠLáº¯k": 5419,
      "ĠBáº¥t": 5420,
      "Ġtráº¯c": 5421,
      "Viá»ĩt": 5422,
      "âĢĭ": 5423,
      "ĠThuáº¿": 5424,
      "ĠKá»ĥ": 5425,
      "ĠHS": 5426,
      "ĠVá»Ģ": 5427,
      "ega": 5428,
      "09": 5429,
      "ĠnÆ°Æ¡ng": 5430,
      "ĠnháºŃn:": 5431,
      "Ġinch": 5432,
      "ĠthÃ¡m": 5433,
      "Ġ\"ChÃºng": 5434,
      "QuÃ¡": 5435,
      "ĠbÃ¨n": 5436,
      "/suc-khoe": 5437,
      "ĠcÃºng": 5438,
      "sp": 5439,
      "Ġdáº¹p": 5440,
      "LÃłm": 5441,
      "ĠFranc": 5442,
      "ieu": 5443,
      "ĠPrem": 5444,
      "ĠMo": 5445,
      "ĠSup": 5446,
      "quat": 5447,
      "Cáº¥p": 5448,
      "ĠTw": 5449,
      "ĠChiáº¿c": 5450,
      "Ġnhá»©c": 5451,
      "Ġ57": 5452,
      "Ġeo": 5453,
      "Ġvá»ĭt": 5454,
      "ĠNgá»¥y": 5455,
      "Ġnhá»įn": 5456,
      "Ġ1976": 5457,
      "bao": 5458,
      "Ġsáº¡t": 5459,
      "ghan": 5460,
      "AC": 5461,
      "igi": 5462,
      "reland": 5463,
      "ny": 5464,
      "Ð¾": 5465,
      "Ġtaxi": 5466,
      "ĠGames": 5467,
      "Ġphiáº¿n": 5468,
      "ĠDon": 5469,
      "Ãĵ": 5470,
      "ĠtÃ³m": 5471,
      "ĠphÃŃ:": 5472,
      "Ġbáº©n": 5473,
      "AG": 5474,
      "BT": 5475,
      "ĠNÃªn": 5476,
      "ĠLÆ°á»£ng": 5477,
      "Lu": 5478,
      "ĠÄĳá»ĵng/kg": 5479,
      "ealand": 5480,
      "Ġby": 5481,
      "RI": 5482,
      "Ġm2": 5483,
      "Ġ\"\"": 5484,
      "))": 5485,
      "ĠÄĳÃºc": 5486,
      "Bank": 5487,
      "ĠEr": 5488,
      "ema": 5489,
      "Cuá»ĳi": 5490,
      "ĠÄĳÃ²n": 5491,
      "Nguá»ĵn:": 5492,
      "ĠTrÃ¬nh": 5493,
      "-N": 5494,
      "Ġlá»µ": 5495,
      "Ġ326": 5496,
      "ĠUr": 5497,
      "}}{": 5498,
      "ound": 5499,
      "ĠSai": 5500,
      "ĠMC": 5501,
      "ĠÄĳá»Ľn": 5502,
      "ĠKhÃª": 5503,
      "Ġá»ĳm": 5504,
      "ĠGD&ÄĲT": 5505,
      "Ġthá»ķi": 5506,
      "ĠÄĳá»ĩm": 5507,
      "ĠTráºŃn": 5508,
      "ophyll": 5509,
      "-kh": 5510,
      "ĠxÃŃch": 5511,
      "ĠXV": 5512,
      "Thá»ĭ": 5513,
      "ĠVan": 5514,
      "ĠcÃłi": 5515,
      "a-n": 5516,
      "ĠMáº¡c": 5517,
      "Ġthoáº£ng": 5518,
      "ĠGDP": 5519,
      "ĠOl": 5520,
      "-200": 5521,
      "-co": 5522,
      "Ġev": 5523,
      "ĠÄĲÃ´n": 5524,
      "Ġhiáº¿p": 5525,
      "Sinh": 5526,
      "ĠSil": 5527,
      "Ġtháº¥u": 5528,
      "iflor": 5529,
      "ĠâĢĭ": 5530,
      "ĠluÃ¢n": 5531,
      "TA": 5532,
      "ords": 5533,
      "DÆ°á»Ľi": 5534,
      "ĠTá»©": 5535,
      "ĠTre": 5536,
      "ĠZealand": 5537,
      "Ġkhá»Ń": 5538,
      "Ġ=>": 5539,
      "Iá»ĨN": 5540,
      "PV": 5541,
      "ous": 5542,
      "ChÆ°Æ¡ng": 5543,
      "ĠTá»ĳi": 5544,
      "/NQ-H": 5545,
      "ĠIreland": 5546,
      "enia": 5547,
      "ago": 5548,
      "Ġ72": 5549,
      "PH": 5550,
      "Ġlá»Ļn": 5551,
      "com/vi/tin-tuc/thong-tin-suc-khoe": 5552,
      "ĠcÃ¡o:": 5553,
      "ĠLáº¡t": 5554,
      "MÃ¡y": 5555,
      "ci": 5556,
      "Ġquá»µ": 5557,
      "rol": 5558,
      "Ġtiá»ĩm": 5559,
      "TÃ¡c": 5560,
      "Ġsá»¥t": 5561,
      "ĠKhÃ¡m": 5562,
      "-tong-": 5563,
      "Ġthá»ĭnh": 5564,
      "ĠStr": 5565,
      "ĠChá»£": 5566,
      "ĠCÃºp": 5567,
      "ates": 5568,
      "Ġ1944": 5569,
      "\"C": 5570,
      "ĠCom": 5571,
      "ĠnÃ©n": 5572,
      "Chiáº¿n": 5573,
      "ĠÄĲÃ´i": 5574,
      "oot": 5575,
      "Ġsáº¹o": 5576,
      "ĠDel": 5577,
      "ras": 5578,
      "ĠlÃµi": 5579,
      "Ġ1942": 5580,
      "Ġ\"Ph": 5581,
      "ĠsÃ´": 5582,
      "bon": 5583,
      "ĠSi": 5584,
      "72": 5585,
      "Ġvon": 5586,
      "Ġbáº¿": 5587,
      "Ġ1968": 5588,
      "Ġ000": 5589,
      "ĠdÃ¡n": 5590,
      "ĠtrÄĥng": 5591,
      "Ġ2-3": 5592,
      "Ġmáº¿n": 5593,
      "ĠÄĳáº¡m": 5594,
      "ĠâĢĭâĢĭ": 5595,
      "Ġrá»ħ": 5596,
      "ĠPhim": 5597,
      "thÃ¡ng": 5598,
      "NhÃ³m": 5599,
      "ĠÄĳáº¯c": 5600,
      "ĠFlor": 5601,
      "uan": 5602,
      "Ġcáº¯m": 5603,
      "Ìīm": 5604,
      "aud": 5605,
      "ĠTráº¯ng": 5606,
      "tá»©c": 5607,
      "Tháº¿": 5608,
      "ĠÄĲÃłm": 5609,
      "Ġelectron": 5610,
      "ĠJose": 5611,
      "Cáº£m": 5612,
      "ĠMichael": 5613,
      "ĠPutin": 5614,
      ",...Ċ": 5615,
      "ĠdÅ©ng": 5616,
      "IC": 5617,
      "ĠngÃ¢m": 5618,
      "-2025": 5619,
      "khoáº£ng": 5620,
      "ĠShe": 5621,
      "Má»Ĺi": 5622,
      "ĠVá»ĩ": 5623,
      "Ġráº¡p": 5624,
      "Ġná»©t": 5625,
      "ĠLouis": 5626,
      "Ġnhan": 5627,
      "ĠdÆ°a": 5628,
      "ĠHow": 5629,
      "ato": 5630,
      "\\\\{": 5631,
      "ilis": 5632,
      "terol": 5633,
      "Ġkiá»ģm": 5634,
      "84": 5635,
      "ĠtrÃ¹m": 5636,
      "rach": 5637,
      "Ġthey": 5638,
      "ville": 5639,
      "Ġká»µ": 5640,
      "i/v": 5641,
      "Ġhas": 5642,
      "ĠDÆ°á»Ľi": 5643,
      "ĠmÃły": 5644,
      "ĠLiverpool": 5645,
      "ĠphÆ¡i": 5646,
      "ĠLo": 5647,
      "Ġdá»ĩt": 5648,
      "iga": 5649,
      "rot": 5650,
      "ml": 5651,
      "ios": 5652,
      "Ġtháº¥m": 5653,
      "86": 5654,
      "Ġ1973": 5655,
      "Ġsim": 5656,
      "Ġrá»¡": 5657,
      "begin{array}{l}": 5658,
      "Ġplay": 5659,
      "sau": 5660,
      "Ġ\"má»Ļt": 5661,
      "Ġhydro": 5662,
      "ÃĮNH": 5663,
      "itan": 5664,
      "Ġ1940": 5665,
      "Ta": 5666,
      "ĠGh": 5667,
      "Pl": 5668,
      "Ġváº¥t": 5669,
      "Ġvá»ī": 5670,
      "ĠMá»©c": 5671,
      "Ġbá»ķng": 5672,
      "ĠKhá»ĳi": 5673,
      "sw": 5674,
      "EO": 5675,
      "ĠLang": 5676,
      "ĠlÅ©ng": 5677,
      "ext": 5678,
      "rov": 5679,
      "ĠÄĳá»įng": 5680,
      "itch": 5681,
      "rogen": 5682,
      "Ġ1974": 5683,
      "ĠSen": 5684,
      "ateridae": 5685,
      "ĠNhu": 5686,
      "imb": 5687,
      "ĠBáº£ng": 5688,
      "ower": 5689,
      "Ġká»ģ": 5690,
      "ĠOp": 5691,
      "Ġ53": 5692,
      "ĠMess": 5693,
      "icul": 5694,
      "roc": 5695,
      "BÃ¬nh": 5696,
      "Ġcar": 5697,
      "ĠTriá»ĥn": 5698,
      "/suc-khoe-tong-": 5699,
      "Ġhiáº¿u": 5700,
      "id=": 5701,
      "ava": 5702,
      "ĠHuÃ¢n": 5703,
      "pi": 5704,
      "esh": 5705,
      "ĠcoÌģ": 5706,
      "ĠtÃ¡ng": 5707,
      "ĠÄĲáº£o": 5708,
      "ĠGiai": 5709,
      "Sch": 5710,
      "ÃĢY": 5711,
      "ChÃło": 5712,
      "yph": 5713,
      "Ġ63": 5714,
      "Ġman": 5715,
      "ĠloÃ©t": 5716,
      "Ġmá»§": 5717,
      "-R": 5718,
      "ĠquÃ¡i": 5719,
      "Há»į": 5720,
      "ĠRonald": 5721,
      "ĠvÄ©nh": 5722,
      "HCS": 5723,
      "LÃ½": 5724,
      "Ġláº·n": 5725,
      "ĠsÃ©t": 5726,
      "ĠGala": 5727,
      "Ġcay": 5728,
      "ings": 5729,
      "ghanistan": 5730,
      "hing": 5731,
      "ision": 5732,
      "League": 5733,
      "ĠÃ´n": 5734,
      "ican": 5735,
      "ia\"": 5736,
      "Ġ700": 5737,
      "ĠMá»įi": 5738,
      "ĠFri": 5739,
      "ĠCÆ°Æ¡ng": 5740,
      "ĠSol": 5741,
      "ĠrÅ©": 5742,
      "76": 5743,
      "ĠMá»Ļc": 5744,
      "Ġ....": 5745,
      "ĠRh": 5746,
      "ĠPhiÃªn": 5747,
      "ĠMyanmar": 5748,
      "ĠÄĲÃ£": 5749,
      "Ġbáº¥m": 5750,
      "Má»Ľi": 5751,
      "ĠTráº£": 5752,
      "ĠMod": 5753,
      "06": 5754,
      "Ġrung": 5755,
      "ĠXI": 5756,
      "ĠAnt": 5757,
      "ĠKy": 5758,
      "AI": 5759,
      "ĠTI": 5760,
      "ĠLH": 5761,
      "ĠDÆ°á»£c": 5762,
      "ĠUkraina": 5763,
      "-Äĳ": 5764,
      "XÃ¢y": 5765,
      "ĠVIá»ĨT": 5766,
      "TÄĥng": 5767,
      "ĠBlack": 5768,
      "ĠxÃ¡ch": 5769,
      "Ġmac": 5770,
      "PTNT": 5771,
      "ĠHá»Ĺ": 5772,
      "Ľt": 5773,
      "Ġngáº¯m": 5774,
      "81": 5775,
      "Ġkáº¹t": 5776,
      "unc": 5777,
      "ĠkhÃ´n": 5778,
      "umb": 5779,
      "Ġkhe": 5780,
      "ĠTM": 5781,
      "ĠMet": 5782,
      "rin": 5783,
      "ĠMV": 5784,
      "alus": 5785,
      "/ap": 5786,
      "ori": 5787,
      "/19": 5788,
      "Ġ80%": 5789,
      "/2016/": 5790,
      "Ġgáº¯t": 5791,
      "/d": 5792,
      "ĠXÆ°Æ¡ng": 5793,
      "CL": 5794,
      "Ġ1943": 5795,
      "Ġham": 5796,
      "ĠTai": 5797,
      "PhÃ²ng": 5798,
      "ÄĲÃ¡nh": 5799,
      "ĠXá»Ń": 5800,
      "ĠBor": 5801,
      "Ġper": 5802,
      "ĠTráº¡ch": 5803,
      "entr": 5804,
      "ĠCHÃį": 5805,
      "ĠkhoÃ¡c": 5806,
      "hitcount/": 5807,
      "hitcountid=": 5808,
      "1/hitcount/": 5809,
      "i/v1/hitcount/": 5810,
      "/api/v1/hitcount/": 5811,
      "rosoft": 5812,
      "u\"": 5813,
      "ĠnÆ°á»Ľc;": 5814,
      "Ġ1977": 5815,
      "ĠHÃĴA": 5816,
      "ĠMÆ°á»Ŀng": 5817,
      "ylv": 5818,
      "ĠgÅ©i": 5819,
      "ĠÂ": 5820,
      "ĠVá»ĭnh": 5821,
      "ĠNháº¡c": 5822,
      "UBTVQH14": 5823,
      "ĠNN": 5824,
      "Ìģch": 5825,
      "Ġáº¡": 5826,
      "¯a": 5827,
      "HÃłng": 5828,
      "ĠhoÃłnh": 5829,
      "ĠVP": 5830,
      "uong-": 5831,
      "Ġá»Ľt": 5832,
      "ĠxÃ´ng": 5833,
      "Ġ1930": 5834,
      "ĠVáº¡n": 5835,
      "ĠAfghanistan": 5836,
      "Ġcholes": 5837,
      "eng": 5838,
      "ĠPremier": 5839,
      "ĠcÃ¡p": 5840,
      "ĠMaria": 5841,
      "ĠkiÃªng": 5842,
      "Ġ70%": 5843,
      "ĠEnter": 5844,
      "ĠNGÃĢY": 5845,
      "ĠVenez": 5846,
      "ĠhÃ²": 5847,
      "ĠPakistan": 5848,
      "lines": 5849,
      "Ã¤": 5850,
      "Ġ1941": 5851,
      "ĠchÆ°": 5852,
      "ĠElateridae": 5853,
      "áº»o": 5854,
      "anthus": 5855,
      "Ġchuá»ĳi": 5856,
      "hid": 5857,
      "VC": 5858,
      "ĠCáº£m": 5859,
      "VD": 5860,
      "ĠHáº¡m": 5861,
      "91": 5862,
      "ĠSar": 5863,
      "ĠTá»Ĭ": 5864,
      "ĠTuyáº¿t": 5865,
      "Ġhel": 5866,
      "93": 5867,
      "ĠRá»ĭa": 5868,
      "Ġlau": 5869,
      "ĠCast": 5870,
      "inho": 5871,
      "ĠAz": 5872,
      "otte": 5873,
      "ĠScot": 5874,
      "PC": 5875,
      "ĠnhÃ¬": 5876,
      "Ġráº¡ng": 5877,
      "Ġxen": 5878,
      "ĠVict": 5879,
      "erry": 5880,
      "ĠManchester": 5881,
      "ree": 5882,
      "den": 5883,
      "Ġcholesterol": 5884,
      "ĠTá»ĬCH": 5885,
      "á»ĺNG": 5886,
      "Ġ1965": 5887,
      "atar": 5888,
      "ĠsÆ°Æ¡ng": 5889,
      "ĠAc": 5890,
      "oshi": 5891,
      "AS": 5892,
      "NÃ³": 5893,
      "71": 5894,
      "ĠFrank": 5895,
      "ause": 5896,
      "ied": 5897,
      "ĠHong": 5898,
      "á»Ľn": 5899,
      "Æ°Æ¡ÌĢi": 5900,
      "AB": 5901,
      "fl": 5902,
      "ĠÄĳá»ĳm": 5903,
      "Ġsmart": 5904,
      "ĠCSÄĲT": 5905,
      "ĠAlbum": 5906,
      "isa": 5907,
      "Ġnghá»ĭch": 5908,
      "700": 5909,
      "oung": 5910,
      "ĠPhá»ĳi": 5911,
      "eed": 5912,
      "ever": 5913,
      "ĠKhai": 5914,
      "Nghá»ĭ": 5915,
      "uki": 5916,
      "/HS": 5917,
      "Ġsáº»:": 5918,
      "Ġkhuy": 5919,
      "Ġráº½": 5920,
      "áº¦": 5921,
      "Ġcom": 5922,
      "Há»ĵ": 5923,
      "ĠRu": 5924,
      "be": 5925,
      "94": 5926,
      "Ġquyáº¿n": 5927,
      "73": 5928,
      "Ġdel": 5929,
      "ĠTex": 5930,
      "anus": 5931,
      "ĠI'": 5932,
      "tra": 5933,
      "ĠÆ°á»Ľt": 5934,
      "ĠĠĠ(": 5935,
      "Chu": 5936,
      "Ġchá»įc": 5937,
      "ĠÄĳÃ³:": 5938,
      "ãģ": 5939,
      "ĠRáº¥t": 5940,
      "-xin": 5941,
      "Ġ1967": 5942,
      "ĠlÄĥn": 5943,
      "Del": 5944,
      "lyc": 5945,
      "Ġbut": 5946,
      "82": 5947,
      "MÃ´": 5948,
      "ĠAss": 5949,
      "Ġtháº¯c": 5950,
      "Ġ1954": 5951,
      "Ġrá»±c": 5952,
      "ĠSun": 5953,
      "83": 5954,
      "ĠMont": 5955,
      "Chiáº¿c": 5956,
      "ĠQuáº£": 5957,
      "ĠchÃŃnh;": 5958,
      "ĠÆ¯": 5959,
      "Ġdá»ĵn": 5960,
      "1]": 5961,
      "ĠXEM": 5962,
      "NháºŃt": 5963,
      "ĠtÃŃnh:": 5964,
      "quáºŃn": 5965,
      "ĠMÃ´": 5966,
      "Ġcháº·ng": 5967,
      "ĠTinh": 5968,
      "uela": 5969,
      "ĠNGHÄ¨": 5970,
      "aker": 5971,
      "ĠPhÃŃa": 5972,
      "ete": 5973,
      "ĠkhÃ©o": 5974,
      "ĠHonda": 5975,
      "je": 5976,
      "FF": 5977,
      "[2": 5978,
      "áºłI": 5979,
      "opsis": 5980,
      "Ġ00": 5981,
      "DN": 5982,
      "ĠAv": 5983,
      "GiÃ¡o": 5984,
      "-G": 5985,
      "AP": 5986,
      "ĠTáº¿": 5987,
      "ĠHang": 5988,
      "Ġmic": 5989,
      "oman": 5990,
      "Ġ1946": 5991,
      "VÃ²ng": 5992,
      "ÄĲá»©c": 5993,
      "ĠÄĳáº¡c": 5994,
      "Tá»·": 5995,
      "Ġsá»«ng": 5996,
      "ATO": 5997,
      "ĠHÄĲXX": 5998,
      "ĠBill": 5999,
      "ital": 6000,
      "ĠNGHÄ¨A": 6001,
      "ED": 6002,
      "Ìĥng": 6003,
      "Ġ61": 6004,
      "Ġeuro": 6005,
      "ĠrÃ£": 6006,
      "ĠĠĠĠĠĠĠĠĠĠĠĠĠĠĠĠĠĠĠĠĠĠĠĠĠĠĠĠĠĠĠĠĠĠĠĠĠĠĠĠĠĠĠĠĠĠĠĠĠĠĠĠĠĠĠĠĠĠĠĠĠĠĠĠĠĠĠĠĠĠĠĠĠĠĠĠĠĠĠĠĠĠĠĠĠĠĠĠĠĠĠĠĠĠĠĠĠĠĠĠĠĠĠĠĠĠĠĠĠĠĠĠĠĠĠĠĠĠĠĠĠĠĠĠĠĠĠĠ": 6007,
      "LÆ°u": 6008,
      "ĠCharles": 6009,
      "chi": 6010,
      "ĠCÃ¢y": 6011,
      "ĠÄĳiÃªu": 6012,
      "ĠMur": 6013,
      "Ġnit": 6014,
      "ĠthÃª": 6015,
      "ĠchuÃ´ng": 6016,
      "ĠUSD/": 6017,
      "alin": 6018,
      "ĠMax": 6019,
      "fer": 6020,
      "ĠdÄ©": 6021,
      "ĠkÃ©p": 6022,
      "74": 6023,
      "Ġbec": 6024,
      "Ġ1971": 6025,
      "Ġ1964": 6026,
      "ĠCarl": 6027,
      "Ġ30/12": 6028,
      "ĠĠĠĠĠĠĠĠĠĠĠĠĠĠĠĠĠĠĠĠĠĠĠĠĠĠĠĠĠĠĠĠĠĠĠĠĠĠĠĠĠĠĠĠĠĠĠĠĠĠĠĠĠĠĠĠĠĠĠĠĠĠĠĠĠĠĠĠĠĠĠĠĠĠĠĠĠĠĠĠĠĠĠĠĠĠĠĠĠĠĠĠĠĠĠĠĠĠĠĠĠĠĠĠĠĠĠĠĠĠĠĠĠĠĠĠĠĠĠĠĠĠĠĠĠĠĠĠĠĠĠĠĠĠĠĠĠĠĠĠĠĠĠĠĠĠĠĠĠĠĠĠĠĠĠĠĠĠĠĠ": 6029,
      "ĠHaw": 6030,
      ")Ġ": 6031,
      "Ãģp": 6032,
      "Ġmá»Ļng": 6033,
      "itter": 6034,
      "ĠXem": 6035,
      "-D": 6036,
      "Br": 6037,
      "Ġ1969": 6038,
      "ife": 6039,
      "ĠToÃ¡n": 6040,
      "SÃ¢n": 6041,
      "Ġthá»īnh": 6042,
      "ĠLuc": 6043,
      "Ġ1963": 6044,
      "ĠTuáº§n": 6045,
      "ĠT1": 6046,
      "Ġngu": 6047,
      "ĠKong": 6048,
      "ĠHay": 6049,
      "Ġnhá»Ł": 6050,
      "ĠchÃ©o": 6051,
      "ÄĳÆ°á»£c": 6052,
      "ĠXÃ¡c": 6053,
      "-dung": 6054,
      "-2020": 6055,
      "ĠKháº£i": 6056,
      "ĠNÄĥng": 6057,
      "ĠCro": 6058,
      "Kinh": 6059,
      "ĠLáº§n": 6060,
      "Trao": 6061,
      "ĠHÃĢNH": 6062,
      "ĠMá»Ľi": 6063,
      "Ġao": 6064,
      "ĠNÆ¡i": 6065,
      "so": 6066,
      "ĠKur": 6067,
      "xÃ£": 6068,
      "ĠBÆ°á»Ľc": 6069,
      "ĠÄĳÃ¢y:": 6070,
      "Ġmá»Ļc": 6071,
      "ĠbÃ¡ch": 6072,
      "Ðµ": 6073,
      "ĠxÃ¡": 6074,
      "ĠKá»·": 6075,
      "ĠnÄĥm:": 6076,
      "ĠAirlines": 6077,
      "Ġ81": 6078,
      "Ġschool": 6079,
      "board": 6080,
      "ti": 6081,
      "QuáºŃn": 6082,
      "ĠBos": 6083,
      "ĠChuyÃªn": 6084,
      "Ġ}": 6085,
      "Ġ90%": 6086,
      "atin": 6087,
      "ĠBáº£y": 6088,
      "MS": 6089,
      "ĠhÃŃt": 6090,
      "ĠXuáº¥t": 6091,
      "Ġrá»ĵng": 6092,
      "ĠchÃŃnh:": 6093,
      "/suc-khoe-tong-quat": 6094,
      "Ġxoáº¯n": 6095,
      "ĠDUNG": 6096,
      "ĠkhÃŃa": 6097,
      "ĠHenry": 6098,
      "ÄĲiá»ĥm": 6099,
      "ĠbÃ³p": 6100,
      "ĠhÃ¡i": 6101,
      "Ġtour": 6102,
      "ĠGiÃ¡p": 6103,
      "ãĤ": 6104,
      "Cal": 6105,
      "ĠvÃ¡n": 6106,
      "ĠcÃºp": 6107,
      "Báº£o": 6108,
      "Ġhá»ĳ": 6109,
      "Ġpop": 6110,
      "Ġ\"r": 6111,
      "INH": 6112,
      "ives": 6113,
      "ĠTexas": 6114,
      "ĠnhÆ°á»£c": 6115,
      "Ġná»ĵi": 6116,
      "CCC": 6117,
      "\"M": 6118,
      "on't": 6119,
      "ĠNap": 6120,
      "ĠAmer": 6121,
      "ANH": 6122,
      "Thay": 6123,
      "Ġenz": 6124,
      "way": 6125,
      "kin": 6126,
      "Ġ326/2016/": 6127,
      "Ġá»ĵn": 6128,
      "ĠMartin": 6129,
      "iy": 6130,
      "oney": 6131,
      "-la": 6132,
      "ĠMÃ¡y": 6133,
      "Ġthá»§ng": 6134,
      "Ġ5%": 6135,
      "cz": 6136,
      "ĠFI": 6137,
      "Tiá»ģn": 6138,
      "Ġváº¡ch": 6139,
      "ĠÄĳáº¿m": 6140,
      "ĠtÃ¹ng": 6141,
      "Ġher": 6142,
      "ĠGalaxy": 6143,
      "ts": 6144,
      "Ġshe": 6145,
      "Ag": 6146,
      "Ġ1962": 6147,
      "--------------": 6148,
      "igiai": 6149,
      "uáº§n": 6150,
      "Ġmáº»": 6151,
      "Ġ110": 6152,
      "igiaihay": 6153,
      "ĠDis": 6154,
      "ĠCháº¿": 6155,
      "Ġtá»ĵi": 6156,
      "ThÃ¡i": 6157,
      "omer": 6158,
      "ĠÄĳÆ°Æ¡": 6159,
      "Ġgluc": 6160,
      "ĠSÃ¡u": 6161,
      "ĠQuáº¿": 6162,
      "Ġrá»§": 6163,
      "ĠRam": 6164,
      "Ð¸": 6165,
      "nes": 6166,
      "ĠlÃ¡t": 6167,
      "ition": 6168,
      "ĠTHCS": 6169,
      "rie": 6170,
      "ĠTrÃ¬": 6171,
      "\":": 6172,
      "phor": 6173,
      "Ġstud": 6174,
      "Ká»ĥ": 6175,
      "Ġnuá»ĳt": 6176,
      "Ġngáº«u": 6177,
      "-qu": 6178,
      "ove": 6179,
      "Ġxoang": 6180,
      "ĠBiá»ĥu": 6181,
      "Ġtáº¡": 6182,
      "ĠtÆ°á»Ľi": 6183,
      "ĠláºŃn": 6184,
      "oug": 6185,
      "Ġ4:": 6186,
      "ĠMicrosoft": 6187,
      "Quá»ĳc": 6188,
      "atia": 6189,
      "Thá»ĥ": 6190,
      "aser": 6191,
      "Ġbá»Ĺng": 6192,
      "ĠTum": 6193,
      "Ġdáº¡i": 6194,
      "chá»¯": 6195,
      "ĠVáºŃt": 6196,
      "/H": 6197,
      "en\"": 6198,
      "Ġ\\dfrac{": 6199,
      "ĠYÃªu": 6200,
      "ĠNam\"": 6201,
      "OT": 6202,
      "Ġ$": 6203,
      "ĠThÃ´n": 6204,
      "ĠGS": 6205,
      "ĠÄĳÃłnh": 6206,
      "Ġbá»Ļc": 6207,
      "ĠKit": 6208,
      "/NQ-HÄĲND": 6209,
      "Ġ1966": 6210,
      "CÃ¡": 6211,
      "Ġhiá»ģn": 6212,
      "Ġ)Ċ": 6213,
      "able": 6214,
      "Ġkm2": 6215,
      "Vá»ĭ": 6216,
      "Ġ85": 6217,
      "ĠPenn": 6218,
      "Ġcua": 6219,
      "ĠÄĲá»ĩ": 6220,
      "ĠcÃłnh": 6221,
      "Ġbar": 6222,
      "ĠÄĳÃ¹a": 6223,
      "ac-s": 6224,
      "Cá»ĺNG": 6225,
      "HÃ´m": 6226,
      "ĠBHYT": 6227,
      "Ìģnh": 6228,
      "ĠChiá»ģu": 6229,
      "Ġâī": 6230,
      "\\frac": 6231,
      "Ġ1000": 6232,
      "celona": 6233,
      "LÃºc": 6234,
      "day": 6235,
      "ansas": 6236,
      "Ġthis": 6237,
      "Ġnhá»ĭ": 6238,
      "NÃ³i": 6239,
      "estion": 6240,
      "-tr": 6241,
      "vel": 6242,
      "Å«": 6243,
      "ĠNgÃ´i": 6244,
      "Báº¢N": 6245,
      "ĠÄĳÃ¹i": 6246,
      "Iá»Ĥ": 6247,
      "ĠNháºŃn": 6248,
      "VÃł": 6249,
      "ĠOne": 6250,
      "Ġlá»Ļi": 6251,
      "Car": 6252,
      "Ã¢Ìģt": 6253,
      "ĠOk": 6254,
      "ÄĲV": 6255,
      "Ġdá»ĳi": 6256,
      "ĠTak": 6257,
      "IS": 6258,
      "ux": 6259,
      "olog": 6260,
      "ĠFrancis": 6261,
      "Ġgr": 6262,
      "/kg": 6263,
      "ĠBL": 6264,
      "Ġrá»ī": 6265,
      "ĠHTX": 6266,
      "ĠHiá»ĥn": 6267,
      "angle": 6268,
      "ias": 6269,
      "ĠNguyá»ĩt": 6270,
      "hoi": 6271,
      "ĠVT": 6272,
      "TTQ": 6273,
      "ĠNgÅ©": 6274,
      "ĠCháº³ng": 6275,
      "Ġsmartphone": 6276,
      "ĠPT": 6277,
      "B:": 6278,
      "Cá»¥c": 6279,
      "Thiáº¿t": 6280,
      "Ġ---------------": 6281,
      "ĠBÃ¡ch": 6282,
      "ĠAk": 6283,
      "ĠTa": 6284,
      "Ġmá»ĭn": 6285,
      "ĠTá»Ŀ": 6286,
      "ĠsáºŃp": 6287,
      "Ġkali": 6288,
      "ĠÃ¢u": 6289,
      "Ġ82": 6290,
      "tainment": 6291,
      "Ġall": 6292,
      "ĠSeoul": 6293,
      "BÃ¡c": 6294,
      "rm{": 6295,
      "elm": 6296,
      "Tráº§n": 6297,
      "Ġ\"gi": 6298,
      "Sc": 6299,
      "ĠHam": 6300,
      "QuÃ¢n": 6301,
      "ĠthÆ°a": 6302,
      "ador": 6303,
      "NhÃ¬n": 6304,
      "Ná»¯": 6305,
      "ĠphÃ´i": 6306,
      "ĠkhÃ¡nh": 6307,
      "ÃģC": 6308,
      "ÄĲÃ³": 6309,
      "ĠTimes": 6310,
      "Co": 6311,
      "\"TÃ´i": 6312,
      "ĠHot": 6313,
      "ĠGiÃ³": 6314,
      "ĠÄĳu": 6315,
      "-bac-s": 6316,
      "ĠhÃ£m": 6317,
      "ĠAndre": 6318,
      "ĠÄĲá»įc": 6319,
      "ĠChÆ°a": 6320,
      "ĠColomb": 6321,
      "Ġáº¥u": 6322,
      "han": 6323,
      "Ġenzym": 6324,
      "ĠxÃ´": 6325,
      "Lá»±c": 6326,
      "erd": 6327,
      "ĠDa": 6328,
      "aga": 6329,
      "Báº£ng": 6330,
      "/TT-BTC": 6331,
      "QG": 6332,
      "Ġgiá»įt": 6333,
      "ĠÄĲá»ı": 6334,
      "ĠTráº¡m": 6335,
      "Ġhoáº¡n": 6336,
      "Xe": 6337,
      "Ġå": 6338,
      "ĠnÃły\"": 6339,
      "ĠGar": 6340,
      "ball": 6341,
      "Pol": 6342,
      "Ġgay": 6343,
      "Ġrob": 6344,
      "EFA": 6345,
      "Ġ3D": 6346,
      "Ġsen": 6347,
      "HÆ¡n": 6348,
      "rog": 6349,
      "Ġcuá»ĵng": 6350,
      "ĠMat": 6351,
      "Ġse": 6352,
      "als": 6353,
      "ĠkhÃ©p": 6354,
      "ĠThiá»ĩu": 6355,
      "Táº¥t": 6356,
      "bl": 6357,
      "eol": 6358,
      "Thuá»ĳc": 6359,
      "ĠgÃ¡c": 6360,
      "Ġmore": 6361,
      "Ġxi": 6362,
      "/199": 6363,
      "Ġbá»įt": 6364,
      "Ġradar": 6365,
      "ĠQuÃ¡n": 6366,
      "Ġcomp": 6367,
      "nhÆ°": 6368,
      "Ġtheir": 6369,
      "ĠRonaldo": 6370,
      "Ġ99": 6371,
      "ĠLá»¯": 6372,
      "TráºŃn": 6373,
      "ĠRichard": 6374,
      "Ġtháº§m": 6375,
      "ĠScotland": 6376,
      "Ġinternet": 6377,
      "ĠtrÆ¡n": 6378,
      "Ġ62": 6379,
      "ĠEs": 6380,
      "roid": 6381,
      "Ġrock": 6382,
      "Ġ\"NgÆ°á»Ŀi": 6383,
      "Ġtá»¥y": 6384,
      "HoÃłng": 6385,
      "ÄĳÃ£": 6386,
      "Loigiaihay": 6387,
      "ĠVenezuela": 6388,
      "Ġ83": 6389,
      "3]": 6390,
      "ËĪ": 6391,
      "ĠKing": 6392,
      "osh": 6393,
      "Ġá»¨": 6394,
      "Ca": 6395,
      "/QÄĲ-B": 6396,
      "Ġsho": 6397,
      "ĠÆ¡i": 6398,
      "á»¨C": 6399,
      "ĠHan": 6400,
      "ĠmÃ¬n": 6401,
      "Ġcá»ĳi": 6402,
      "ĠNob": 6403,
      "ĠÃĤn": 6404,
      "ĠCD": 6405,
      "yle": 6406,
      "á»£p": 6407,
      "Ġmanh": 6408,
      "net": 6409,
      "Ġnghiá»ĩp:": 6410,
      "áº¤P": 6411,
      "irst": 6412,
      "TÃĴA": 6413,
      "ĠlÃª": 6414,
      "ĠÄĳá»¥c": 6415,
      "ĠNhÃ¬n": 6416,
      "ĠSaint": 6417,
      "ĠtrÃº:": 6418,
      "ĠThomas": 6419,
      "Ġdai": 6420,
      "ĠKu": 6421,
      "Ġphiá»ģn": 6422,
      "ĠbÃ³c": 6423,
      "irus": 6424,
      "las": 6425,
      "edia": 6426,
      "/QÄĲ": 6427,
      "elen": 6428,
      "wn": 6429,
      "Mic": 6430,
      "NÆ°á»Ľc": 6431,
      "ĠcÆ°á»Ľc": 6432,
      "fe": 6433,
      "ĠMU": 6434,
      "ĠHÄĲQT": 6435,
      "\"B": 6436,
      "ĠTan": 6437,
      "ĠCá»©": 6438,
      "ĠnhÃ¢n:": 6439,
      "Ġhao": 6440,
      "ĠTÃ¹y": 6441,
      "Ġ66": 6442,
      "Ġur": 6443,
      "ĠMÆ°á»Ŀi": 6444,
      "Rh": 6445,
      "ĠLi": 6446,
      "Ġ1m": 6447,
      "ĠÄĳÃŃnh": 6448,
      "ĠChiÃªu": 6449,
      "ÉĻ": 6450,
      "Ġviáº¿ng": 6451,
      "ĠMá»Ł": 6452,
      "ven": 6453,
      "Ġ40%": 6454,
      "ilidae": 6455,
      "now": 6456,
      "ĠDÃ¹ng": 6457,
      "áº¢I": 6458,
      "ĠCHÃįNH": 6459,
      "ather": 6460,
      "Ġ\"J": 6461,
      "riend": 6462,
      "Ġ?": 6463,
      "Ġkhoáº£nh": 6464,
      "-ÄĲT": 6465,
      "ĠphÃ¡c": 6466,
      "Ġau": 6467,
      "ami": 6468,
      "UYá»Ĩ": 6469,
      "ĠÄĳÃ´n": 6470,
      "Ġup": 6471,
      "ĠtrÃ¡n": 6472,
      "ĠkhÃ¡c:": 6473,
      "ĠBayern": 6474,
      "\"S": 6475,
      "ĠtrÃ¢n": 6476,
      "ĠháºŃn": 6477,
      "ĠgÃ¢n": 6478,
      "Ġgiang": 6479,
      "ison": 6480,
      "Ġnhiáº¿p": 6481,
      "isten": 6482,
      "Ġ1956": 6483,
      "ĠJe": 6484,
      "ĠÄĳá»¥ng": 6485,
      "ĠXe": 6486,
      "ĠH1": 6487,
      "eld": 6488,
      "ĠbÃ£": 6489,
      "ĠVá»£": 6490,
      "ĠPCCC": 6491,
      "ĠCáº£i": 6492,
      "Ġ106": 6493,
      "ĠTHU": 6494,
      "Nghá»ĩ": 6495,
      "ĠPháº£i": 6496,
      "ĠNhung": 6497,
      "icol": 6498,
      "ĠngÆ°Æ¡ÌĢi": 6499,
      "ÃªÌĢ": 6500,
      "ĠPat": 6501,
      "XEM": 6502,
      "Ġbo": 6503,
      "Ġ\"qu": 6504,
      "ĠnhÄ©": 6505,
      "hai": 6506,
      "VÃŃ": 6507,
      "ĠDuyÃªn": 6508,
      "ĠInter": 6509,
      "po": 6510,
      "ĠhÆ°ng": 6511,
      "ĠvÃ³c": 6512,
      "ĠTay": 6513,
      "PP": 6514,
      "ĠvÃ¡ch": 6515,
      "ĠBerlin": 6516,
      "ĠTrá»±c": 6517,
      "/2009": 6518,
      "Ġ1958": 6519,
      "ĠSá»¹": 6520,
      "ĠEst": 6521,
      "Ġthere": 6522,
      "Ġ\"ngÆ°á»Ŀi": 6523,
      "Ã¢Ì£t": 6524,
      "ĠLos": 6525,
      "ĠbÃ¹n": 6526,
      "ĠÄĲá»ĵn": 6527,
      "Ġlá»¡": 6528,
      "áº¤T": 6529,
      "ĠSEA": 6530,
      "ÆłNG": 6531,
      "Ġ326/2016/UBTVQH14": 6532,
      "ĠTrÆ°ng": 6533,
      "-r": 6534,
      "Ġ68": 6535,
      "ĠHill": 6536,
      "Ġchuá»Ļng": 6537,
      "Am": 6538,
      "erv": 6539,
      "Ġ\"U": 6540,
      "Ġgiáº¿": 6541,
      "por": 6542,
      "Ghi": 6543,
      ",Ġ(": 6544,
      "Ġtrá»ħ": 6545,
      "ĠLÄ©nh": 6546,
      "Ġmáº¯m": 6547,
      "ĠHoáº¡t": 6548,
      "Ġxao": 6549,
      "Ġmon": 6550,
      "...,": 6551,
      "iew": 6552,
      "ĠSÃ¡ch": 6553,
      "Ġtá»ĭ": 6554,
      "ĠtÃº": 6555,
      "Ġbong": 6556,
      "MÃ¹a": 6557,
      "ĠkhiÃªu": 6558,
      "-15": 6559,
      "uyen": 6560,
      "ieu-": 6561,
      "an\"": 6562,
      "ĠRed": 6563,
      "Ġnáº¯p": 6564,
      "Ãµm": 6565,
      "ĠAT": 6566,
      "Tiáº¿ng": 6567,
      "Ġná»¥": 6568,
      "andra": 6569,
      "ĠchÃ¨": 6570,
      "ĠthÃŃnh": 6571,
      "ĠBarcelona": 6572,
      "/ph": 6573,
      "Ġ2015;": 6574,
      "ĠÃ¹n": 6575,
      "rown": 6576,
      "Or": 6577,
      "ten": 6578,
      "ulf": 6579,
      "Ġneo": 6580,
      "-K": 6581,
      "ĠPa": 6582,
      "-bac-si/": 6583,
      "Ġtest": 6584,
      "ĠGáº§n": 6585,
      "Ġngá»įc": 6586,
      "emb": 6587,
      "ĠBÃłn": 6588,
      "Ġ1955": 6589,
      "Ġbá»ĵn": 6590,
      "Ġráº¡n": 6591,
      "CD": 6592,
      "ĠÂł": 6593,
      "-ST": 6594,
      "um\"": 6595,
      "Ġloa": 6596,
      "sa": 6597,
      "LÃª": 6598,
      "Ġnháº¥t\"": 6599,
      "ĠvÃ´i": 6600,
      "Ġcarbon": 6601,
      "Ġvá»īa": 6602,
      "Ġáº¿ch": 6603,
      "ĠluáºŃn:": 6604,
      "ER": 6605,
      "Ġ1920": 6606,
      "field": 6607,
      "Ġchay": 6608,
      "reg": 6609,
      "ĠNHNN": 6610,
      "ĠÄĳÃ¡n": 6611,
      "A:": 6612,
      "ĠÄĳáº±ng": 6613,
      "Ð½": 6614,
      "ĠEntertainment": 6615,
      "times": 6616,
      "ĠJun": 6617,
      "ĠKiáº¿m": 6618,
      "olo": 6619,
      "\"\"": 6620,
      "Ġtime": 6621,
      "Ġ-------": 6622,
      "Cáº£nh": 6623,
      "Ã¢ÌĢn": 6624,
      "ĠJul": 6625,
      "ĠTuyáº¿n": 6626,
      "ĠLin": 6627,
      "Ġbre": 6628,
      "ĠNATO": 6629,
      "ni": 6630,
      "ĠCá»Ńa": 6631,
      "Cáº§n": 6632,
      "Ġchiáº¿t": 6633,
      "Ġkáº¹o": 6634,
      "Ġhá»Ļi;": 6635,
      "ĠlÃ³t": 6636,
      "gar": 6637,
      "ĠBS": 6638,
      "á»Ľc": 6639,
      "Ġ67": 6640,
      "ĠngÃło": 6641,
      "ĠtÆ¡": 6642,
      "Sá»ĳ:": 6643,
      "ĠVTV": 6644,
      "ĠdÃª": 6645,
      "mi": 6646,
      "Par": 6647,
      "aea": 6648,
      "ĠOtt": 6649,
      "4}": 6650,
      "ĠTháº¥t": 6651,
      "BA": 6652,
      "sin": 6653,
      "ĠthiÃªng": 6654,
      "Ġson": 6655,
      "ĠLá»Ŀi": 6656,
      "ĠUEFA": 6657,
      "Ġmag": 6658,
      "iev": 6659,
      "Ġhis": 6660,
      "DT": 6661,
      "Há»įc": 6662,
      "Ġ\\frac{{": 6663,
      "ĠTráº¥n": 6664,
      "ĠH2": 6665,
      "oni": 6666,
      "Ġthoa": 6667,
      "ange": 6668,
      "ival": 6669,
      "Ġ1939": 6670,
      "ga": 6671,
      "ster": 6672,
      "Ġ{{": 6673,
      "Ġun": 6674,
      "-dau": 6675,
      "ĠrÃ²": 6676,
      "Ġváº£y": 6677,
      "Ġláº¯c": 6678,
      "ĠAN": 6679,
      "ĠÄĲB": 6680,
      "ĠSuper": 6681,
      "Ġhot": 6682,
      "ĠvÃ¢n": 6683,
      "Ġrá»Ļn": 6684,
      "ĠvÆ¡": 6685,
      "no": 6686,
      "ternational": 6687,
      "ĠBÄĥng": 6688,
      "Ġmet": 6689,
      "Ġnhá»ķ": 6690,
      "ĠÄĳuá»ĳi": 6691,
      "inea": 6692,
      "Ġnhai": 6693,
      "can": 6694,
      "ĠToy": 6695,
      "ela": 6696,
      "ĠWar": 6697,
      "ĠKiá»ĩt": 6698,
      "Ġ1961": 6699,
      "uters": 6700,
      "iÃªÌģt": 6701,
      "Ġ1959": 6702,
      "El": 6703,
      "aster": 6704,
      "ĠKhÃ¡ch": 6705,
      "ĠTháº¡c": 6706,
      "ĠDiá»ĩu": 6707,
      "ĠlÃ¹ng": 6708,
      "ĠXIII": 6709,
      "ĠGiá»Ŀ": 6710,
      "ĠloÃ£ng": 6711,
      "Ġinsulin": 6712,
      "ĠxÆ°á»Ľng": 6713,
      "lan": 6714,
      "Æ¯ÆłNG": 6715,
      "ĠUyÃªn": 6716,
      "ĠMTV": 6717,
      "lex": 6718,
      "ĠSlov": 6719,
      "cus": 6720,
      "ĠUng": 6721,
      "ĠMilan": 6722,
      "Ġdá»ĵi": 6723,
      "ĠRos": 6724,
      "ylvania": 6725,
      "Â°C": 6726,
      "ĠSAR": 6727,
      "com/vi/tin-tuc": 6728,
      "ĠnhÃŃ": 6729,
      "ĠchiÃªn": 6730,
      "ĠCop": 6731,
      "ĠTÆ°á»Ľng": 6732,
      "led": 6733,
      "ĸ¡": 6734,
      "Ġkiá»ģu": 6735,
      "0}": 6736,
      "Éª": 6737,
      "tera": 6738,
      "ĠÎ": 6739,
      "Ã¢Ìģ": 6740,
      "Ġrun": 6741,
      "Ġchá»©ng:": 6742,
      "Ġsome": 6743,
      "ĠThÃªm": 6744,
      "Cáº£": 6745,
      "ycl": 6746,
      "ĠMosk": 6747,
      "ĠGer": 6748,
      "Ġrá»ĩt": 6749,
      "ref": 6750,
      "ru": 6751,
      "ette": 6752,
      "Ġwork": 6753,
      "ĠPeter": 6754,
      "ĠSá»©c": 6755,
      "Ġsal": 6756,
      "ĠÃ½:": 6757,
      "ĠNig": 6758,
      "Xuáº¥t": 6759,
      "iflora": 6760,
      "ĠBul": 6761,
      "Diá»ħn": 6762,
      "Ġion": 6763,
      "pid": 6764,
      "TuyÃªn": 6765,
      "ĠTour": 6766,
      "ä¸": 6767,
      "ĠDNA": 6768,
      "ĠchÃ¬": 6769,
      "van": 6770,
      "ray": 6771,
      "ON": 6772,
      "ViÃªm": 6773,
      "ĠUnivers": 6774,
      "OV": 6775,
      "ĠPort": 6776,
      "ach/c": 6777,
      "ĠÄĤ": 6778,
      "ĠVinm": 6779,
      "And": 6780,
      "ĠChuáº©n": 6781,
      "Ġmin": 6782,
      "Ġtin:": 6783,
      "ĠmÃ´Ì£t": 6784,
      "Ġgiáº·c": 6785,
      "IM": 6786,
      "Äģ": 6787,
      "ÑĢ": 6788,
      "ĠrÃ¡p": 6789,
      "ĠVol": 6790,
      "ĠnhÆ°á»Ŀng": 6791,
      "ĠHáº¡t": 6792,
      "ask": 6793,
      "cow": 6794,
      "ĠAndroid": 6795,
      "com/vi/danh": 6796,
      "ĠâĢ¢": 6797,
      "ĠnhÄĥn": 6798,
      "ĠMah": 6799,
      "-tri": 6800,
      "ĠVirg": 6801,
      "ĠChÄĥm": 6802,
      "Ġ1957": 6803,
      "ĠMeg": 6804,
      "ati": 6805,
      "Ġinter": 6806,
      "assage": 6807,
      "form": 6808,
      "ĠvÃ£": 6809,
      "ream": 6810,
      "Ġ1}": 6811,
      "ĠCá»ĳ": 6812,
      "Ġ1947": 6813,
      "ĠhoÃłi": 6814,
      "apt": 6815,
      "))Ċ": 6816,
      "rob": 6817,
      "Ná»ĺI": 6818,
      "ĠMÃ¼": 6819,
      "ĠBM": 6820,
      "ret": 6821,
      "ĠBÃ©": 6822,
      "Pháº¡m": 6823,
      "ĠShin": 6824,
      "ĠCÃĶNG": 6825,
      "ĠId": 6826,
      "ĠKhÃŃ": 6827,
      "Ġ92": 6828,
      "STT": 6829,
      "Ġ60%": 6830,
      "rey": 6831,
      "/NQ-": 6832,
      "ĠTá»ģ": 6833,
      ";\\": 6834,
      "ĠNov": 6835,
      "ĠPu": 6836,
      "ode": 6837,
      "Ġone": 6838,
      "ĠÄĳáº·n": 6839,
      "Hoáº¡t": 6840,
      "lÄ±": 6841,
      "Sáº£n": 6842,
      "ĠxÃ´i": 6843,
      "ĠChÃº": 6844,
      "ĠTáº¡": 6845,
      "atal": 6846,
      "ĠGal": 6847,
      "ĠGroup": 6848,
      "ĠVKS": 6849,
      "[1]": 6850,
      "Ġhá»įc:": 6851,
      "ĠNÄĤ": 6852,
      "Ġcontain": 6853,
      "Ġhá»ıi:": 6854,
      "Giai": 6855,
      "ĠPo": 6856,
      "ĠChuyá»ĥn": 6857,
      "ĠGold": 6858,
      "Ġ130": 6859,
      "uct": 6860,
      "Ġ180": 6861,
      "ong/": 6862,
      "elia": 6863,
      "Ġgáº¥u": 6864,
      "Ġloáº¡i:": 6865,
      "?Ġ(": 6866,
      "Ġ1-2": 6867,
      "ĠAlb": 6868,
      "Phá»¥": 6869,
      "ĠVinmech": 6870,
      "ĠDiÃªn": 6871,
      "sylvania": 6872,
      "Ġ\\-": 6873,
      "ĠEdward": 6874,
      "ĠCáºŃn": 6875,
      "JC": 6876,
      "Báº¯t": 6877,
      "ĠGiÃ¡ng": 6878,
      "ĠMÃ©": 6879,
      "ĠQuáº§n": 6880,
      "Ġanime": 6881,
      "ĠNay": 6882,
      "ĠMun": 6883,
      "stan": 6884,
      "ĠVinmechttps://www": 6885,
      "ough": 6886,
      "Ġoan": 6887,
      "Ġkhá»ī": 6888,
      "ĠHIá»ĨN": 6889,
      "ĠgÃ£": 6890,
      "Ġrá»ĥ": 6891,
      "ĠTri": 6892,
      "ĠColombia": 6893,
      "ado": 6894,
      "ĠLatinh": 6895,
      "Äĥk": 6896,
      "Ġngoan": 6897,
      "ĠXII": 6898,
      "Delta": 6899,
      "Máº«u": 6900,
      "ĠSum": 6901,
      "ĠKe": 6902,
      "-thuoc": 6903,
      "ĠTÃ¡m": 6904,
      "ĠKhÆ°Æ¡ng": 6905,
      "ĠlÃ¡ng": 6906,
      "ĠHN": 6907,
      "pho": 6908,
      "Ġgiáº¿ng": 6909,
      "Fran": 6910,
      "ĠLau": 6911,
      "sá»ĳ": 6912,
      "Ġlá»ĳc": 6913,
      "ĠFIFA": 6914,
      "ĠDie": 6915,
      "Ġ76": 6916,
      "oga": 6917,
      "Ġráº¯c": 6918,
      "accine": 6919,
      "ĠbÃły:": 6920,
      "Ġdá»Ł": 6921,
      "oun": 6922,
      "elt": 6923,
      "ÄĲÃ£": 6924,
      "ĠMer": 6925,
      "ĠhÆ°á»Ľc": 6926,
      "-18": 6927,
      "amm": 6928,
      "MC": 6929,
      "Ġki": 6930,
      "ject": 6931,
      "ÅĦ": 6932,
      "Vietnam": 6933,
      "ĠphÃ´": 6934,
      "ĠmÃ´ng": 6935,
      "ĠTHá»°C": 6936,
      "ĠMessi": 6937,
      "Ġthung": 6938,
      "Giao": 6939,
      "cl": 6940,
      "ĠVH": 6941,
      "gr": 6942,
      "ĠPhá»ĳ": 6943,
      "ĠÄĳoan": 6944,
      "ypod": 6945,
      "Háº£i": 6946,
      "{x^2}": 6947,
      "NHáº¬N": 6948,
      "MA": 6949,
      "/b": 6950,
      "ĠPhÆ°á»Ŀng": 6951,
      "ĠWhi": 6952,
      "ĠlÃ½:": 6953,
      "ĠCá»¥m": 6954,
      "Ãļ": 6955,
      "ĠKÃŃnh": 6956,
      "aba": 6957,
      "ĠWales": 6958,
      "ĠYam": 6959,
      "PA": 6960,
      "ĠTal": 6961,
      "ĠrÃ¡ch": 6962,
      "ĠrÃ²ng": 6963,
      "Ġrá»ĳn": 6964,
      "ĠDai": 6965,
      "[2]": 6966,
      "ĠGreen": 6967,
      "Ãºn": 6968,
      "Ġ\"Y": 6969,
      "lim": 6970,
      "ator": 6971,
      "ĠJan": 6972,
      "Trang": 6973,
      "USD": 6974,
      "Ġnghiá»ĩp;": 6975,
      "Ġ95": 6976,
      "ĠPennsylvania": 6977,
      "Ġpart": 6978,
      "ilia": 6979,
      "-p": 6980,
      "áº¨": 6981,
      "Ġuá»ĳn": 6982,
      "Æ¯á»ļ": 6983,
      "Æ¡m": 6984,
      "ĠMoskva": 6985,
      "ynch": 6986,
      "Ġhen": 6987,
      "urt": 6988,
      "Kiá»ĥm": 6989,
      "\\overrightarrow": 6990,
      "ĠnháºŃm": 6991,
      "oso": 6992,
      "ĠNorth": 6993,
      "ĠHit": 6994,
      "ĠGÃ²": 6995,
      "adi": 6996,
      "ĠReuters": 6997,
      "Cáº§u": 6998,
      "ĠVideo": 6999,
      "ĠMoscow": 7000,
      "Dá»±a": 7001,
      "Lá»ħ": 7002,
      "hm": 7003,
      "org": 7004,
      "com/vi/danh-s": 7005,
      "ote": 7006,
      "ĠvÃ²i": 7007,
      "OH": 7008,
      "ĠSon": 7009,
      "ĠCas": 7010,
      "ĠÄĲau": 7011,
      "Ġ101": 7012,
      "-hi": 7013,
      "ĠVÆ°á»Ŀn": 7014,
      "ĠYouT": 7015,
      "pes": 7016,
      "Xá»Ń": 7017,
      "ement": 7018,
      "ĠLÄĲ": 7019,
      "ĠÄĲi": 7020,
      "win": 7021,
      "Ġ69": 7022,
      "LuáºŃt": 7023,
      "ĠRec": 7024,
      "\"T": 7025,
      "emen": 7026,
      "com/vi/danh-sach/c": 7027,
      "Ġ\\sqrt": 7028,
      "Ġliá»ħu": 7029,
      "ĠHÃ´m": 7030,
      "Ġviáº¿t:": 7031,
      "CÃ¢y": 7032,
      "Ġtáº¥u": 7033,
      "Ġvery": 7034,
      "Ġtá»ıi": 7035,
      "ĠvÆ°á»£ng": 7036,
      "hic": 7037,
      "Máº·t": 7038,
      "ĠKen": 7039,
      "uri": 7040,
      "tÆ°Æ¡ng": 7041,
      "Ġnatri": 7042,
      "900": 7043,
      "tá»īnh": 7044,
      "ĠchÃª": 7045,
      "ĠÄĳáº¯ng": 7046,
      "Ġgá»ĳm": 7047,
      "ĠÄĳá»ĭnh;": 7048,
      "Ġbá»ĵ": 7049,
      "ef": 7050,
      "ÃĤY": 7051,
      "ollagen": 7052,
      "Ġ1936": 7053,
      "bb": 7054,
      "ĠCá»±c": 7055,
      "ĠCáºŃu": 7056,
      "ĠTháº¥y": 7057,
      "a-nuoc": 7058,
      "ĠNhÆ°á»¡ng": 7059,
      "Ġcuá»Ļn": 7060,
      "Pseud": 7061,
      "Ġgá»«ng": 7062,
      "lt": 7063,
      "ĠClin": 7064,
      "^2}}": 7065,
      "ĠGD-ÄĲT": 7066,
      "HO": 7067,
      "aff": 7068,
      "atur": 7069,
      "ĠWh": 7070,
      "Chia": 7071,
      "itar": 7072,
      "Ġnháº·t": 7073,
      "under": 7074,
      "ĠBig": 7075,
      "ĠBern": 7076,
      "Ġsent": 7077,
      "ĠHD": 7078,
      "ĠHÃ£ng": 7079,
      "cÃ¡c": 7080,
      "ĠÄĳÆ°Æ¡Ì£c": 7081,
      "ĠAngeles": 7082,
      "ello": 7083,
      "ĠKaz": 7084,
      "Ġ\"Nhá»¯ng": 7085,
      "ĠAC": 7086,
      "ĠOscar": 7087,
      "ĠÄĲá»ĵ": 7088,
      "ĠItalia": 7089,
      "oda": 7090,
      "ĠNik": 7091,
      "[3]": 7092,
      "Ġgram": 7093,
      "odon": 7094,
      "/thÃ¡ng": 7095,
      "Ġcontainer": 7096,
      "Ġthá»ı": 7097,
      "ĠNav": 7098,
      "ĠDiá»ĩp": 7099,
      "/m": 7100,
      "ĠÄĳÆ¡n:": 7101,
      "ST-H": 7102,
      "\\dfrac{": 7103,
      "Ġwhi": 7104,
      "i-l": 7105,
      "yz": 7106,
      "á»¦y": 7107,
      "Ġmod": 7108,
      "Ġ1953": 7109,
      "iform": 7110,
      "Ġdec": 7111,
      "ĠÄĳun": 7112,
      "Ġlá»¯": 7113,
      "Ġváº·t": 7114,
      "Thiáº¿u": 7115,
      "ĠAnton": 7116,
      "cÃ²n": 7117,
      "TÃłi": 7118,
      "Cháº¥t": 7119,
      "ĠÄĳiÃªn": 7120,
      "ĠSÃ©c": 7121,
      "ĠÄĳÃ¨": 7122,
      "Ġphanh": 7123,
      "cu": 7124,
      "ĠVlad": 7125,
      "UYá»ĨN": 7126,
      "Ġcá»įc": 7127,
      "Ġqui": 7128,
      "-Ind": 7129,
      "ĠghÃ©t": 7130,
      "Ġcá»į": 7131,
      "ĠvÃ²m": 7132,
      "ĠGa": 7133,
      "icum": 7134,
      "Ġdes": 7135,
      "Ġdáº¡o": 7136,
      "owa": 7137,
      "ĠmÃ²": 7138,
      "Ġ1949": 7139,
      "br>": 7140,
      "Æ¯u": 7141,
      "ij": 7142,
      "GiÃ¡m": 7143,
      "Ġwh": 7144,
      "4]": 7145,
      "biz": 7146,
      "ĠTháºŃt": 7147,
      "Æ°Æ¡m": 7148,
      "Ġ\\in": 7149,
      "ĠRad": 7150,
      "ĠKT": 7151,
      "Ġcá»Łi": 7152,
      "ĠTC": 7153,
      "ĠCarol": 7154,
      "cos": 7155,
      "Ġ\\times": 7156,
      "ĠTel": 7157,
      "ĠCháº¥n": 7158,
      "ĠMusic": 7159,
      "hoi-d": 7160,
      "Ã¢Ì£p": 7161,
      "ĠgiÃłn": 7162,
      "PS": 7163,
      "actyl": 7164,
      "ĠCNTT": 7165,
      "TCK": 7166,
      "ĠNho": 7167,
      "AGL": 7168,
      "Ġnghiá»ĩt": 7169,
      "ChuyÃªn": 7170,
      "ennis": 7171,
      "ĠhiÃª": 7172,
      "ĠnhÃ¡t": 7173,
      "Ġamin": 7174,
      "Ġkhuáº¥t": 7175,
      "ĠVy": 7176,
      "Ġtáº¡i:": 7177,
      "ĠAth": 7178,
      "Question": 7179,
      "ĠNgÆ°": 7180,
      "Ġ?Ċ": 7181,
      "orth": 7182,
      "rum": 7183,
      "Ġvá»Ľt": 7184,
      "ĠSH": 7185,
      "ĠFed": 7186,
      "Ġ15%": 7187,
      "ĠthÃ¨m": 7188,
      "SCO": 7189,
      "Ġfriend": 7190,
      "une": 7191,
      "ĠDiv": 7192,
      "hr": 7193,
      "-Index": 7194,
      "ĠHolly": 7195,
      "lu": 7196,
      "ubl": 7197,
      "ĠVÃ´": 7198,
      "ĠAB": 7199,
      "ĠIm": 7200,
      "Ġquáº¡t": 7201,
      "ĠKháº£": 7202,
      "ĠLáº¡i": 7203,
      "Ġdiff": 7204,
      "ĠNet": 7205,
      "ĠVer": 7206,
      "ior": 7207,
      "ÄĲau": 7208,
      "hio": 7209,
      "ÃŃp": 7210,
      "ĠXin": 7211,
      "ĠSmith": 7212,
      "rate": 7213,
      "Ġet": 7214,
      "Ġráº¡ch": 7215,
      "ĠÄĳáº¯n": 7216,
      "Ġ30/12/2016": 7217,
      "Ġ1948": 7218,
      "Äĳá»ĥ": 7219,
      "ĠchÄĥng": 7220,
      "ait": 7221,
      "ĠTho": 7222,
      "off": 7223,
      "ĠPlay": 7224,
      "ĠRod": 7225,
      "Nghe": 7226,
      "ustin": 7227,
      "ĠcaÌģc": 7228,
      "ĠJac": 7229,
      "ĠVitamin": 7230,
      "ĠBank": 7231,
      "á»¦Y": 7232,
      "ĠComp": 7233,
      "lec": 7234,
      "ĠthÃ¬a": 7235,
      "linois": 7236,
      "ĠMáºŃu": 7237,
      "thuá»Ļc": 7238,
      "ĠlÃ¡ch": 7239,
      "ĠMá»¤C": 7240,
      "ĠÃĲ": 7241,
      "Ġwhen": 7242,
      "ĠTs": 7243,
      "ĠStud": 7244,
      "Ġváº¯c-xin": 7245,
      "ĠchÃ¨n": 7246,
      "ĠTrÃºc": 7247,
      "ĠChile": 7248,
      "ĠSARS": 7249,
      "Ġchá»Ńi": 7250,
      "Ġngáº·t": 7251,
      "ĠThey": 7252,
      "ogloss": 7253,
      "Mar": 7254,
      "IDS": 7255,
      "Háº§u": 7256,
      "ĠNghe": 7257,
      "kov": 7258,
      "ĠVáº¥n": 7259,
      "CK": 7260,
      "elan": 7261,
      "ĠÄĳiÃª": 7262,
      "ĠSoc": 7263,
      "ĠÄĲÃ¡ng": 7264,
      "ĠHa": 7265,
      "Ġonline": 7266,
      "Ġtro": 7267,
      "ĠYouTube": 7268,
      "Ġá»¨ng": 7269,
      "Ġres": 7270,
      "/QH": 7271,
      "Äĩ": 7272,
      "ĠTuá»ķi": 7273,
      "ĠSur": 7274,
      "Ġrá»ĳt": 7275,
      "ĠDC": 7276,
      "ĠPhÃ¡i": 7277,
      "ĠâĢĶ": 7278,
      "âĢĵ19": 7279,
      "ĠSk": 7280,
      "igan": 7281,
      "ĠÄĲÃłn": 7282,
      "ulata": 7283,
      "ĠMTTQ": 7284,
      "Nga": 7285,
      "ĠJean": 7286,
      "ĠUS": 7287,
      "Ġnew": 7288,
      "-phong-": 7289,
      "Ãºm": 7290,
      "101": 7291,
      "Ġ1952": 7292,
      "com/vi/danh-sach/ca-nuoc": 7293,
      "ĠQUY": 7294,
      "QL": 7295,
      "ĠnháºŃu": 7296,
      "Ġcol": 7297,
      "Ġquáº¥y": 7298,
      "hoi-dap": 7299,
      "Ġnhiá»ħu": 7300,
      "Ġghen": 7301,
      "ĠBarca": 7302,
      "ĠIllinois": 7303,
      "Sh": 7304,
      "ĠÄĳáº¯m": 7305,
      "ĠNÃºi": 7306,
      "Ġ84": 7307,
      "Ġ900": 7308,
      "Ġvaccine": 7309,
      "PhiÃªn": 7310,
      "ĠchÃ¡o": 7311,
      "azz": 7312,
      "Ġtáº£n": 7313,
      "ogon": 7314,
      "ĠGiá»ĳng": 7315,
      "ĠÄĤn": 7316,
      "ĠXX": 7317,
      "TÆ°Æ¡ng": 7318,
      "Ġquá»³": 7319,
      "Ġ71": 7320,
      "ylon": 7321,
      "Ġ1951": 7322,
      "ĠPhá»¥ng": 7323,
      "Is": 7324,
      "gia": 7325,
      "ĠRock": 7326,
      "Ġshould": 7327,
      "ĠNhÃ£": 7328,
      "-vien": 7329,
      "ĠQuÃ¡ch": 7330,
      "Å©a": 7331,
      "ĠHÃ´n": 7332,
      "ider": 7333,
      "NgÃ¢n": 7334,
      "ĠFA": 7335,
      "Ġcuá»ĳng": 7336,
      "ĠAS": 7337,
      "cal": 7338,
      "ĠLG": 7339,
      "ĠKl": 7340,
      "ifer": 7341,
      "ĠBrit": 7342,
      "ih": 7343,
      "Ġgá»¥c": 7344,
      "ĠnÃ£": 7345,
      "omet": 7346,
      "ĠngÆ°á»Ŀi\"": 7347,
      "Ġ88": 7348,
      "imir": 7349,
      "ryopter": 7350,
      "ĠWall": 7351,
      "-quang": 7352,
      "á»Ķ": 7353,
      "Ġemail": 7354,
      "isia": 7355,
      "ĠthÃ¹y": 7356,
      "ĠtÃºng": 7357,
      "Æ¯á»ľ": 7358,
      "Ġdon't": 7359,
      "ĠMob": 7360,
      "ĠchÃ¬a": 7361,
      "ĠÄĳinh": 7362,
      "bach": 7363,
      "ĠDom": 7364,
      "dam": 7365,
      "ĠÃło": 7366,
      "á»£t": 7367,
      "-Co": 7368,
      "wo": 7369,
      "Ġthiá»ģn": 7370,
      "ism": 7371,
      "ĠMour": 7372,
      "ĠFlorida": 7373,
      "ilm": 7374,
      "ĠBÄĲS": 7375,
      "Ġyear": 7376,
      "ĠIt's": 7377,
      "arus": 7378,
      "ury": 7379,
      "Ġkar": 7380,
      "ĠJackson": 7381,
      "-sinh": 7382,
      "Gáº§n": 7383,
      "ĠthiÃªu": 7384,
      "uma": 7385,
      "Ġout": 7386,
      "ations": 7387,
      "ĠStar": 7388,
      "ĠvÃªÌĢ": 7389,
      "Ġ1938": 7390,
      "ophi": 7391,
      "ĠxoÃ¡y": 7392,
      "/tin-tuc/thong-tin-suc-khoe/suc-khoe-tong-quat": 7393,
      "ÄĲoÃłn": 7394,
      "abeth": 7395,
      "Sm": 7396,
      "ĠTáº¡ng": 7397,
      "ĠLind": 7398,
      "ĠTÃĴA": 7399,
      "Ġmany": 7400,
      "ĠMot": 7401,
      "Ġ77": 7402,
      "Ġ140": 7403,
      "Ġláº±n": 7404,
      "ĠrÃ¹a": 7405,
      "Ġxoa": 7406,
      "ĠDiá»ĩn": 7407,
      "aro": 7408,
      "Ġ\"X": 7409,
      "ker": 7410,
      "/hoi-dap": 7411,
      "Ġob": 7412,
      "Ġ25%": 7413,
      "Má»¥c": 7414,
      "xico": 7415,
      "ridge": 7416,
      "ĠXanh": 7417,
      "-va-": 7418,
      "ĠHÃ¡n:": 7419,
      "vin": 7420,
      "Ġ350": 7421,
      "ĠGiáº£m": 7422,
      "Ġest": 7423,
      "Ġten": 7424,
      "okia": 7425,
      "ĠHá»Ļ": 7426,
      "ĠViettel": 7427,
      "nik": 7428,
      "ĠThá»¥c": 7429,
      "asi": 7430,
      "ĠmÃ©p": 7431,
      "Ġviá»ģn": 7432,
      "TÃ¬m": 7433,
      "áº®": 7434,
      "Ġngáº¥t": 7435,
      "isch": 7436,
      "Ġ74": 7437,
      "Ġdid": 7438,
      "ĠxÃ¡t": 7439,
      "Ġvá»±ng": 7440,
      "aku": 7441,
      "[[": 7442,
      "Ġ1937": 7443,
      "ĠSport": 7444,
      "Ġ73": 7445,
      "ĠAward": 7446,
      "Sp": 7447,
      "ĠvÃµng": 7448,
      "ulus": 7449,
      "Ġpho": 7450,
      "Ġgas": 7451,
      "ootball": 7452,
      "ĠLÃ²": 7453,
      "á»¥a": 7454,
      "Ġvá»©": 7455,
      "ĴNG": 7456,
      "Ġthink": 7457,
      "ĠÄĳá»Ŀ": 7458,
      "ĠmÃ¬nh\"": 7459,
      "ĠLÆ°u:": 7460,
      "...)": 7461,
      "Ġtá»¥t": 7462,
      "een": 7463,
      "Ã³p": 7464,
      "Ã³w": 7465,
      "osph": 7466,
      "Ġnáº¿n": 7467,
      "Ġ\"CÃ¡c": 7468,
      "ĠÃª": 7469,
      "ĠDr": 7470,
      "ĠdÃło": 7471,
      "Loáº¡i": 7472,
      "ĠNhiá»ħm": 7473,
      "ross": 7474,
      "nd": 7475,
      "ĠBre": 7476,
      "PhÆ°á»Ŀng": 7477,
      "Ġbáº«y": 7478,
      "ĠrÃ´": 7479,
      "ĠDáº¥u": 7480,
      "urop": 7481,
      "ĠbuÃ´ng": 7482,
      "ĠDar": 7483,
      "ĠMik": 7484,
      "ÄĤn": 7485,
      "ylla": 7486,
      "ots": 7487,
      "ĠghÃ©": 7488,
      "BM": 7489,
      "ĠmÃŃa": 7490,
      "ĠbÃ¬a": 7491,
      "Ġxay": 7492,
      "ĠBao": 7493,
      "ĠDan": 7494,
      "ĠÄĲá»ĳng": 7495,
      "Ãī": 7496,
      "Ġnhá»ĵi": 7497,
      "iden": 7498,
      "cho": 7499,
      "ÄĲoáº¡n": 7500,
      "ĠchÃ¨o": 7501,
      "ĠFried": 7502,
      "Ġtháº¯n": 7503,
      "ĠMao": 7504,
      "ĠHUYá»ĨN": 7505,
      "ĠNgÆ°á»£c": 7506,
      "ĠquyÃªn": 7507,
      "ĠVictoria": 7508,
      "ilon": 7509,
      "ĠLÆ°": 7510,
      "roph": 7511,
      "lav": 7512,
      "Ġlog": 7513,
      "osc": 7514,
      "ĠCÃ¡n": 7515,
      "Cha": 7516,
      "ĠTrá»¥": 7517,
      "Ġstress": 7518,
      "ston": 7519,
      "Ġ\\over": 7520,
      "ĠhÃ´ng": 7521,
      "ĠVFF": 7522,
      "Ġsáº£nâĢĿ": 7523,
      "ĠmÃ¡c": 7524,
      "ĠMinn": 7525,
      "á»¬": 7526,
      "Ġlá»Ļt": 7527,
      "Ġday": 7528,
      "thur": 7529,
      "ĠHá»ıa": 7530,
      "Ġmá»ī": 7531,
      "Ġ78": 7532,
      "ĠIg": 7533,
      "estine": 7534,
      "TB": 7535,
      "Ġhá»¥i": 7536,
      "Ġglucose": 7537,
      "Ġmake": 7538,
      "\"ChÃºng": 7539,
      "nham": 7540,
      "ĠDiego": 7541,
      "ĠMáº¡ng": 7542,
      "Giá»Ľi": 7543,
      "gov": 7544,
      "ĠI'm": 7545,
      "NESCO": 7546,
      "ĠItaly": 7547,
      "ĠOhio": 7548,
      "-17": 7549,
      "ĠInternational": 7550,
      "Ġtáº·c": 7551,
      "vá»Ľi": 7552,
      "ĠSel": 7553,
      "å¤": 7554,
      "ĠxÄĥm": 7555,
      "ĠMerc": 7556,
      "Ġthem": 7557,
      "1}": 7558,
      "ning": 7559,
      "ourg": 7560,
      "ĠMÃ©xico": 7561,
      "Ġquá»·": 7562,
      "qua": 7563,
      "Tá»ĳi": 7564,
      "Ps": 7565,
      "Ġtáº¿;": 7566,
      "Ġ98": 7567,
      "ĠNA": 7568,
      "imm": 7569,
      "ishi": 7570,
      "ĠRá»ĵi": 7571,
      "ĠWeb": 7572,
      "-vien-v": 7573,
      "CÃ¡i": 7574,
      "fa": 7575,
      "Ġaf": 7576,
      "chen": 7577,
      "Ġnhá»Ŀn": 7578,
      "-CoV": 7579,
      "ĠVÄ©": 7580,
      "ĠKhmer": 7581,
      "ĠCÆ°": 7582,
      "ĠsÃ¢m": 7583,
      "ĠRa": 7584,
      "Ġind": 7585,
      "ĠNiÃªn": 7586,
      "ĠJo": 7587,
      "ĠchÆ°á»Ľng": 7588,
      "ĠHAGL": 7589,
      "ĠÄĲÃ¡p": 7590,
      "ĠLev": 7591,
      "Tip": 7592,
      "Ġgiá»ģng": 7593,
      "Kim": 7594,
      "MÃ£": 7595,
      "/coso": 7596,
      "/coso-benh": 7597,
      "Ġ91": 7598,
      "ĠTwitter": 7599,
      "ĠDani": 7600,
      "ĠBTC": 7601,
      "FC": 7602,
      "ely": 7603,
      "aco": 7604,
      "Ġ86": 7605,
      "ĠKhÃ´ng;": 7606,
      "ĠBÃ¡t": 7607,
      "ĠPGS": 7608,
      "Ġ1900": 7609,
      "eop": 7610,
      "\"H": 7611,
      "ĠTáº¡o": 7612,
      "à¤": 7613,
      "Ġrong": 7614,
      "ĠArab": 7615,
      "ĠxÃŃ": 7616,
      "ĠMang": 7617,
      "ĠBrun": 7618,
      "ĠLand": 7619,
      "ĠquáºŃt": 7620,
      "ito": 7621,
      "ĠUl": 7622,
      "Ġyáº¿n": 7623,
      "XD": 7624,
      "ĠTÃĢ": 7625,
      "ĠDÃ²ng": 7626,
      "treet": 7627,
      "ĠToyota": 7628,
      "Ġ160": 7629,
      "ĠKam": 7630,
      "Ġvá»©t": 7631,
      "MP": 7632,
      "ĠLiá»ĩt": 7633,
      "ĠBOT": 7634,
      "ĠBab": 7635,
      "GB": 7636,
      "Viáº¿t": 7637,
      "aii": 7638,
      "ĠEver": 7639,
      "Ġname": 7640,
      "ĠNÃ¢ng": 7641,
      "ollow": 7642,
      "<br>": 7643,
      "Ġwant": 7644,
      "Ġá»§": 7645,
      "ĠMid": 7646,
      "ĠMary": 7647,
      "Tuá»ķi": 7648,
      "OC": 7649,
      "ÄĲá»Ļng": 7650,
      "Ġnhuá»Ļm": 7651,
      "rah": 7652,
      "ĠmÃłi": 7653,
      "ĠVÃ²ng": 7654,
      "ister": 7655,
      "ĠSJC": 7656,
      "ĠV-": 7657,
      "vÃŃ": 7658,
      "ĠSz": 7659,
      "Ġ1929": 7660,
      "ĠnÃłnh": 7661,
      "ensis\"": 7662,
      "Ġ1934": 7663,
      "uay": 7664,
      "ĠviÃªn:": 7665,
      "ĠrÄĥn": 7666,
      "Ġdá»Ĺ": 7667,
      "Giáº£m": 7668,
      "åħ": 7669,
      "ĠLen": 7670,
      "Ġ\"KhÃ´ng": 7671,
      "Ġtoan": 7672,
      "/B": 7673,
      "jan": 7674,
      "Ġag": 7675,
      "oxide": 7676,
      "rion": 7677,
      "-30": 7678,
      "hire": 7679,
      "áº¿m": 7680,
      "ĠLá»Ľn": 7681,
      "Ġphá»§;": 7682,
      "Ġdung:": 7683,
      "ĠEngl": 7684,
      "ĠKhanh": 7685,
      "kern": 7686,
      "Ġæ": 7687,
      "ĠHollywood": 7688,
      "Ñģ": 7689,
      "ĠMart": 7690,
      "NghiÃªn": 7691,
      "Ġbecause": 7692,
      "Ġcort": 7693,
      "/giá»Ŀ": 7694,
      "Ġ87": 7695,
      "ĠYoung": 7696,
      "Ġang": 7697,
      "ĠJoseph": 7698,
      "ĠcháºŃt": 7699,
      "O2": 7700,
      "ThÆ°á»Ŀng": 7701,
      "Ġ1935": 7702,
      "ĠBi": 7703,
      "iller": 7704,
      "ĠRes": 7705,
      "ĠOanh": 7706,
      "/TL": 7707,
      "Di": 7708,
      "ĠhÆ¡n\"": 7709,
      "ĠXÃ¡": 7710,
      "NS": 7711,
      "ĠÃºt": 7712,
      "ĠZh": 7713,
      "ĠGIA": 7714,
      "Thá»ĳng": 7715,
      "),Ġ(": 7716,
      "Ġ...Ċ": 7717,
      "ĠKhá»Łi": 7718,
      "uyÃª": 7719,
      "ĠÄĳá»ĳng": 7720,
      "Ġenzyme": 7721,
      "[4]": 7722,
      "ble": 7723,
      "eli": 7724,
      "Ì£nh": 7725,
      "ĠÃ¡": 7726,
      "SG": 7727,
      "esota": 7728,
      "ĠÆ¡": 7729,
      "etter": 7730,
      "Ġap": 7731,
      "Kho": 7732,
      "urg": 7733,
      "aÌĢnh": 7734,
      "Ġ\"Qu": 7735,
      "ful": 7736,
      "edes": 7737,
      "Ġsá»įc": 7738,
      "Ġkhiáº¿p": 7739,
      "ĠDak": 7740,
      "Ġgiun": 7741,
      "ĠAug": 7742,
      "osta": 7743,
      "ianus": 7744,
      "__": 7745,
      "ĠHá»ıi": 7746,
      "ĠMiá»ģn": 7747,
      "ĠnghÃªnh": 7748,
      "SÃ´ng": 7749,
      "kok": 7750,
      "estival": 7751,
      "Biá»ĥu": 7752,
      "min": 7753,
      "Ġnig": 7754,
      "ĠnÃłn": 7755,
      "ngh": 7756,
      "Ġxáº¥p": 7757,
      "Láº§n": 7758,
      "ĠtÆ°ÌĢ": 7759,
      "/hoi-dap-bac-si/": 7760,
      "ĠlÃ©o": 7761,
      "Ġquáº¿": 7762,
      "ĠBus": 7763,
      "ĠMinnesota": 7764,
      "ĠSteph": 7765,
      "Ġ249": 7766,
      "ĠBiáº¿t": 7767,
      "ĠmáºŃp": 7768,
      "/CT": 7769,
      "ĠÄĲen": 7770,
      "ĠÃģi": 7771,
      "Ð¾Ð": 7772,
      "Ġkhá»ĳc": 7773,
      "ĠHarry": 7774,
      "ĠThere": 7775,
      "oeing": 7776,
      "ĠxuÃ´i": 7777,
      "Ġchuá»ĵng": 7778,
      "raph": 7779,
      "ĠâĢĿ": 7780,
      "ĠDub": 7781,
      "ĠluáºŃt;": 7782,
      "Ġuse": 7783,
      "ĠBÃ³ng": 7784,
      "ĠlÃ¡nh": 7785,
      "Ġnom": 7786,
      "ĠFrancisco": 7787,
      "-2016": 7788,
      "ĠkhoÄĥn": 7789,
      "ĠKÃ½": 7790,
      "alt": 7791,
      "Ġláº§y": 7792,
      "Ġ1%": 7793,
      "ason": 7794,
      "ĠxÃ³t": 7795,
      "ĠNghiá»ĩp": 7796,
      "Æ°á»Ľu": 7797,
      "ĠcÃ²i": 7798,
      "ĠTiáº¿t": 7799,
      "elli": 7800,
      "ĠNag": 7801,
      "HoÃłn": 7802,
      "TÄĲ": 7803,
      "ady": 7804,
      "Ġ\"Náº¿u": 7805,
      "Ġansw": 7806,
      "ĠBoy": 7807,
      "INE": 7808,
      "-khi": 7809,
      "ĠBon": 7810,
      "ĠLá»Ļ": 7811,
      "ĠTHÃĢNH": 7812,
      "ĠPalestine": 7813,
      "ĠEv": 7814,
      "Ġphá»ĳ;": 7815,
      "ÄĲÃł": 7816,
      "ĠMáºŃt": 7817,
      "ĠÄĲáº·t": 7818,
      "Ã±": 7819,
      "/coso-benh-vien-v": 7820,
      "ĠCHá»¨C": 7821,
      "su": 7822,
      "Ġcollagen": 7823,
      "Ġhelp": 7824,
      "ĠHero": 7825,
      "ĠCC": 7826,
      "/TW": 7827,
      "azon": 7828,
      "ĠMourinho": 7829,
      "dor": 7830,
      "Ġbá»ĩ": 7831,
      "ĠÄĳÆ°á»£c\"": 7832,
      "ĠÄĲÃºng": 7833,
      "ĠCharl": 7834,
      "-UBND": 7835,
      "ĠUNESCO": 7836,
      "/2020/NÄĲ-CP": 7837,
      "ĠAdam": 7838,
      "Ġdáº»o": 7839,
      "/L": 7840,
      "Ã¼r": 7841,
      "ĠbÆ°á»Łi": 7842,
      "lam": 7843,
      "So": 7844,
      "Ġá»©": 7845,
      "/2008": 7846,
      "Má»©c": 7847,
      "stant": 7848,
      "ban": 7849,
      "Ġmuá»Ĺi": 7850,
      "mit": 7851,
      "Ġngá»Ńa": 7852,
      "ĠThá»©c": 7853,
      "ÄĲá»ĭnh": 7854,
      "ĠNigeria": 7855,
      "ĠThÃŃch": 7856,
      "ident": 7857,
      "rite": 7858,
      "Ġret": 7859,
      "Ġdoes": 7860,
      "Ġluá»Ļc": 7861,
      "eh": 7862,
      "5}": 7863,
      "ĠgiÃ¡ng": 7864,
      "Ġ\\begin{array}{l}": 7865,
      "ĠTá»ĭnh": 7866,
      "Ġ1/3": 7867,
      "ĠWars": 7868,
      "ĠChá»¯": 7869,
      "eon": 7870,
      "arin": 7871,
      "ĠbÃ¡u": 7872,
      "NgÃ´i": 7873,
      "Ġwere": 7874,
      "ophyllum": 7875,
      "TÃłu": 7876,
      "erid": 7877,
      "ĠtrÆ°á»Ŀng;": 7878,
      "ĠJoh": 7879,
      "aza": 7880,
      "ĠCO2": 7881,
      "ĠTÆ°á»Łng": 7882,
      "rian": 7883,
      "Ġ125": 7884,
      "ĠMass": 7885,
      "Ġ79": 7886,
      "uá»ĳn": 7887,
      "ĠDiá»ħm": 7888,
      "Ä±k": 7889,
      "asp": 7890,
      "ĠBC": 7891,
      "MÃ´i": 7892,
      "ĠbÄĥn": 7893,
      "Ġfe": 7894,
      "ĠChá»įn": 7895,
      "Ġrec": 7896,
      "ĠSimon": 7897,
      "Äĳá»ĳi": 7898,
      "Ġ\"Con": 7899,
      "reat": 7900,
      "Ġ................": 7901,
      "Ġ\"cÃ³": 7902,
      "Ġngá»¥c": 7903,
      "ChÃº": 7904,
      "ipes": 7905,
      "TÃ³m": 7906,
      "orr": 7907,
      "ĠKhuyáº¿n": 7908,
      "Ġnhá»¥c": 7909,
      "-16": 7910,
      "Ġ147": 7911,
      "ĠLibya": 7912,
      "ĠNÄĤM": 7913,
      "ences": 7914,
      "ĠRoma": 7915,
      "Ġxá»ĭt": 7916,
      "Ġeach": 7917,
      "5]": 7918,
      "andal": 7919,
      "Ġ................................................................": 7920,
      "ĠTÃŃch": 7921,
      "ĠU19": 7922,
      "Ġ96": 7923,
      "ĠBÆ°u": 7924,
      "Ġni": 7925,
      "Ġthá»ģm": 7926,
      "ual": 7927,
      "-CoV-2": 7928,
      "zo": 7929,
      "ĠthÃªm:": 7930,
      "ĠKCN": 7931,
      "zh": 7932,
      "rost": 7933,
      "yth": 7934,
      "ĠPHÃģ": 7935,
      "ĠpH": 7936,
      "ĠJohnson": 7937,
      "ĠsoÃ¡i": 7938,
      "rypt": 7939,
      "ĠMir": 7940,
      "ÑĤ": 7941,
      "Ġgoing": 7942,
      "emia": 7943,
      "for": 7944,
      "Ġgood": 7945,
      "Ġset": 7946,
      "................................................": 7947,
      "-2015": 7948,
      "math": 7949,
      "Ġá»¦": 7950,
      "Tin": 7951,
      "ĠArt": 7952,
      "VáºŃn": 7953,
      "Äĳá»ĵng": 7954,
      "una": 7955,
      "ities": 7956,
      "/A": 7957,
      "ĠTáº£": 7958,
      "ĠNgÃłnh": 7959,
      "ĠMoh": 7960,
      "combank": 7961,
      "ĠKitÃ´": 7962,
      "ĠSS": 7963,
      "Chuyá»ĥn": 7964,
      "ĠX-quang": 7965,
      "Ġrobot": 7966,
      "ordan": 7967,
      "Diá»ĩn": 7968,
      "Ġrub": 7969,
      "ĠÄĲá»ĳc": 7970,
      "Ġform": 7971,
      "Ġsáº«m": 7972,
      "\"L": 7973,
      "ovic": 7974,
      "ĠPomer": 7975,
      "Ġour": 7976,
      "ĠTuÃ¢n": 7977,
      "ĠmÃŃ": 7978,
      "ĠDinh": 7979,
      "eda": 7980,
      "ĠtÃ¢Ì£p": 7981,
      "ĠMÃ¬nh": 7982,
      "otus": 7983,
      "enter": 7984,
      "ĠPe": 7985,
      "ĠMeth": 7986,
      "yb": 7987,
      "Ap": 7988,
      "ÄĲÃ´": 7989,
      "Ġcr": 7990,
      "ĠrÃ¢u": 7991,
      "å®": 7992,
      "ĠchÃ¹m": 7993,
      "Ġsex": 7994,
      "ĠSab": 7995,
      "ĠQH": 7996,
      "ĠtÃ´i\"": 7997,
      "olk": 7998,
      "Báº¥t": 7999,
      "Ġ1931": 8000,
      "ãĢ": 8001,
      "ifolium": 8002,
      "ĠnhÆ°Ìĥng": 8003,
      "ĠDes": 8004,
      "VP": 8005,
      "HN": 8006,
      "ĠThiá»ģn": 8007,
      "ĠRoy": 8008,
      "gá»ĵm": 8009,
      "ĠnÄĥn": 8010,
      "icola": 8011,
      "-dung-thuoc": 8012,
      "ĠBÃ¡n": 8013,
      "ToÃłn": 8014,
      "Ġal-": 8015,
      "ĠSerbia": 8016,
      "Ġtem": 8017,
      "Ġ136": 8018,
      "ĠvÆ¡Ìģi": 8019,
      "ĠÄĲÄĥk": 8020,
      "ÃĢN": 8021,
      "ves": 8022,
      "ĠâĢľTr": 8023,
      "iff": 8024,
      "emat": 8025,
      "ĠMÃª": 8026,
      "Ad": 8027,
      "ĠÄĳÃ¨o": 8028,
      "ific": 8029,
      "FO": 8030,
      "ĠbaÌīn": 8031,
      "ĠSN": 8032,
      "ĠFord": 8033,
      "ivi": 8034,
      "rane": 8035,
      "ĠÄĳÅ©a": 8036,
      "Ġlaser": 8037,
      "áº»m": 8038,
      "ĠBulg": 8039,
      "uth": 8040,
      "ĠSim": 8041,
      "ways": 8042,
      "aid": 8043,
      "ĠJong-": 8044,
      "ĠVirginia": 8045,
      "Ġlá»Ļc": 8046,
      "Ġ1918": 8047,
      "Ġ102": 8048,
      "á»°": 8049,
      "arth": 8050,
      "Ġbus": 8051,
      "Cháº¿": 8052,
      "uce": 8053,
      "ĠDisney": 8054,
      "ĠrÃ¡o": 8055,
      "Ġnhá»ĭn": 8056,
      "ĠchÃ©n": 8057,
      "AE": 8058,
      "ĠÃł": 8059,
      "Ġshowbiz": 8060,
      "ĠBuÃ´n": 8061,
      "-2018": 8062,
      "ĠÆ°á»Ľp": 8063,
      "Ġdáº·n": 8064,
      "Å¡": 8065,
      "Ġgiáº·t": 8066,
      "ĠThan": 8067,
      "Ġkhao": 8068,
      "Ġgieo": 8069,
      "ĠNokia": 8070,
      "ĠEliz": 8071,
      "/TTXVN": 8072,
      "ould": 8073,
      "Ġ1914": 8074,
      "Ġ105": 8075,
      "Ex": 8076,
      "trÆ°á»Ľc": 8077,
      "ĠVÄĲV": 8078,
      "\\dfrac{{": 8079,
      "âĸ¡": 8080,
      "ĠgáºŃy": 8081,
      "ĠCÃ´n": 8082,
      "ĠChÃºc": 8083,
      "Ġd'": 8084,
      "ĠphÃŃm": 8085,
      "Ġáº£nh:": 8086,
      "ĠTáº¡p": 8087,
      "anna": 8088,
      "TiÃªu": 8089,
      "ĠcÃ¡m": 8090,
      "ĠABC": 8091,
      "ĠAlexander": 8092,
      "\"-": 8093,
      "/coso-benh-vien-v-phong-": 8094,
      "Ġtoa": 8095,
      "Ġlip": 8096,
      "ĠHawaii": 8097,
      "ĠVladimir": 8098,
      "Ġkhan": 8099,
      "-nao": 8100,
      "Ġ%": 8101,
      "eron": 8102,
      "pan": 8103,
      "oud": 8104,
      "ĠPhu": 8105,
      "ONG": 8106,
      "Ġbiáº¿ng": 8107,
      "ĠxÃ´n": 8108,
      "ĠEug": 8109,
      "ika": 8110,
      "ĠGhi": 8111,
      "Ġtháº±n": 8112,
      "orph": 8113,
      "Ġchip": 8114,
      "Mac": 8115,
      "ĠAR": 8116,
      "GÄĲ": 8117,
      "ĠMua": 8118,
      "ĠPeru": 8119,
      "ĠXa": 8120,
      "ĠHOáºł": 8121,
      "inal": 8122,
      "eral": 8123,
      "Ġnan": 8124,
      "ĠKarl": 8125,
      "well": 8126,
      "Vietnam+": 8127,
      "ĠIowa": 8128,
      "ures": 8129,
      "Ġ1891": 8130,
      "Ġsá»¥n": 8131,
      "Tá»īnh": 8132,
      "ĠAFP": 8133,
      "ĠKhÃ¡ng": 8134,
      "AD": 8135,
      "-2019": 8136,
      "/nh": 8137,
      "á»Ńng": 8138,
      "Ġom": 8139,
      "ME": 8140,
      "ĠGuinea": 8141,
      "PhÃŃa": 8142,
      "Ġpr": 8143,
      "ĠLá»Ĺ": 8144,
      "ĠThai": 8145,
      "ragon": 8146,
      "inson": 8147,
      "ĠNeurop": 8148,
      "Ġcá»Ľ": 8149,
      "ĠSom": 8150,
      "150": 8151,
      "-duoc": 8152,
      "sc": 8153,
      "ogen": 8154,
      "ĠDá»±a": 8155,
      "ĠngÃ²i": 8156,
      "ChÆ°a": 8157,
      "Máº¹": 8158,
      "ĠlÄĥm": 8159,
      "eto": 8160,
      "escens": 8161,
      "ĠFDI": 8162,
      "ĠSARS-CoV-2": 8163,
      "Ġkham": 8164,
      "Tiáº¿n": 8165,
      "ĠSud": 8166,
      "ĠNeuroptera": 8167,
      "Dá»ĭch": 8168,
      "ohyd": 8169,
      "Ġrá»ķ": 8170,
      "Ġdis": 8171,
      "Rob": 8172,
      "Ġfollow": 8173,
      "ĠLáº¥y": 8174,
      "oglossum": 8175,
      "cá»§a": 8176,
      "ĠtÃºyâĢĿ": 8177,
      "Ġ1912": 8178,
      "HLV": 8179,
      "antha": 8180,
      "Ġlá»¥a": 8181,
      "ĠTrÃ¡ch": 8182,
      "ĠchÃ¡nh": 8183,
      "pus": 8184,
      "Ġmau": 8185,
      "press": 8186,
      "Ġduá»ĩ": 8187,
      "ĠNi": 8188,
      "Ġá»ĳi": 8189,
      "ĠKan": 8190,
      "ĠRá»ĳi": 8191,
      "etamine": 8192,
      "ope": 8193,
      "ĠOnline": 8194,
      "ĠHitler": 8195,
      "ĠThuáºŃt": 8196,
      "Ġ220": 8197,
      "Ġcac": 8198,
      "ĠRay": 8199,
      "kham": 8200,
      "TL": 8201,
      "Ġná»Ľi": 8202,
      "Triá»ĩu": 8203,
      "ĠSuy": 8204,
      "Ġtáº£o": 8205,
      "Ä±n": 8206,
      "Ġkhiáº¿m": 8207,
      "ĠLÃłng": 8208,
      "ique": 8209,
      "Ġve": 8210,
      "eton": 8211,
      "000Äĳá»ĵng": 8212,
      "ĠBoeing": 8213,
      "ody": 8214,
      "ĠLÃ£": 8215,
      "Ġmanga": 8216,
      "ĠSerie": 8217,
      "cin": 8218,
      "DÃ¹ng": 8219,
      "Ġwords": 8220,
      "Ġsáº¥u": 8221,
      "ĠFred": 8222,
      "ĠmÃ£nh": 8223,
      "ĠÄĲá»ĴNG": 8224,
      "Ġ1933": 8225,
      "Ġrá»Ļ": 8226,
      "Ġ2021-2025": 8227,
      "olin": 8228,
      "ĠMRI": 8229,
      "Ġcháº£i": 8230,
      "ĠPic": 8231,
      "Ġ1932": 8232,
      "ing\"": 8233,
      "Ġ89": 8234,
      "LC": 8235,
      "asa": 8236,
      "akia": 8237,
      "ĠNobel": 8238,
      "Báº¯c": 8239,
      "ĠTáºłI": 8240,
      "play": 8241,
      "ĠQuyÃªn": 8242,
      "m3": 8243,
      "ĠÃ³c": 8244,
      "TÃ¢n": 8245,
      "try": 8246,
      "Ġtrá»įt": 8247,
      "orus": 8248,
      "ĠAbd": 8249,
      "ĠnhÃ´m": 8250,
      "Ġestrogen": 8251,
      "IN": 8252,
      "Phil": 8253,
      "ardo": 8254,
      "loc": 8255,
      "Ġhad": 8256,
      "Ġbáº¡": 8257,
      "ĠLÃ¡": 8258,
      "Ġ\\dfrac{1}{": 8259,
      "ĠFe": 8260,
      "ĠKat": 8261,
      "ardi": 8262,
      "ĠSri": 8263,
      "Ġkeo": 8264,
      "ĠMáº«n": 8265,
      "ĠThÃ¡o": 8266,
      "entus": 8267,
      "Ġthen": 8268,
      "Ġtá»Ļc:": 8269,
      "ÃĬU": 8270,
      "orum": 8271,
      "Ġque": 8272,
      "ĠPas": 8273,
      "ĠkhoÃ¡i": 8274,
      "ĠSand": 8275,
      "VÅ©": 8276,
      "ĠTá»¤": 8277,
      "ĠLHQ": 8278,
      "/2021/NÄĲ-CP": 8279,
      "ÄĲiá»ĩn": 8280,
      "ĠKhuÃª": 8281,
      "ĠChinh": 8282,
      "Phong": 8283,
      "Ã¢Ì£n": 8284,
      "ĠÄĲÃªm": 8285,
      "ĠÄĲoáº¡n": 8286,
      "ĠTrÃłng": 8287,
      "Ġdá»¥ng:": 8288,
      "ĠlÃ©n": 8289,
      "ĠnÃ³n": 8290,
      "ĠHá»ķ": 8291,
      "ĠVII": 8292,
      "td": 8293,
      "TTP": 8294,
      "-35": 8295,
      "ĠBulgaria": 8296,
      "Ġcorr": 8297,
      "ĠBáº¯t": 8298,
      "Ġlá»į": 8299,
      "ĠBas": 8300,
      "á»£n": 8301,
      "ĠLÃ´": 8302,
      "osus": 8303,
      "ĠClinton": 8304,
      "Ġ227": 8305,
      "omy": 8306,
      "ĠFab": 8307,
      "HA": 8308,
      "ĠTá»Ľi": 8309,
      "Ġ5:": 8310,
      "Ġtháº±ng": 8311,
      "Ġ108": 8312,
      "cha": 8313,
      "Ġ1922": 8314,
      "ĠWood": 8315,
      "ĠLÃ£o": 8316,
      "ĠDam": 8317,
      "ĠFriedrich": 8318,
      "Ġviá»ĩt": 8319,
      "iger": 8320,
      "ĠRead": 8321,
      "ĠPHá»Ĳ": 8322,
      "opp": 8323,
      "ĠgiÃ£": 8324,
      "ĠBá»ĳn": 8325,
      "SiÃªu": 8326,
      "ĠHoáº±ng": 8327,
      "ĠHall": 8328,
      "ioides": 8329,
      "ĠCÃ¡nh": 8330,
      "ĠBÃłng": 8331,
      "ildren": 8332,
      "ottenham": 8333,
      "Ġ1913": 8334,
      "aux": 8335,
      "ĠTown": 8336,
      "Ġvis": 8337,
      "ĠÄĳan": 8338,
      "Káº¿": 8339,
      "usa": 8340,
      "ude": 8341,
      "Ġ1924": 8342,
      "thi": 8343,
      "ocarp": 8344,
      "Ġsáº¡c": 8345,
      "}}}": 8346,
      "ĠCroatia": 8347,
      "Hyp": 8348,
      "Ġ1917": 8349,
      "Ġ\"p": 8350,
      "ĠTá»¤C": 8351,
      "HCN": 8352,
      "Ġguitar": 8353,
      "1;": 8354,
      "HÆ°á»Ľng": 8355,
      "ĠSav": 8356,
      "ĠxÃło": 8357,
      "unk": 8358,
      "Ġxáº»": 8359,
      "ovo": 8360,
      "Eu": 8361,
      "idium": 8362,
      "ĠTech": 8363,
      "ĠAD": 8364,
      "ĠFu": 8365,
      "VH": 8366,
      "ĠCanh": 8367,
      "Ġ93": 8368,
      "EU": 8369,
      "Ġ1908": 8370,
      "ĠÃĩ": 8371,
      "utt": 8372,
      "TK": 8373,
      "Ġhá»£p:": 8374,
      "Ġcáº©u": 8375,
      "ĠHÃ¢n": 8376,
      "ĠLÃ¢n": 8377,
      "ems": 8378,
      "ĠCM": 8379,
      "ĠkhiÃªm": 8380,
      "ĠBBC": 8381,
      "elin": 8382,
      "ĠTHá»¦": 8383,
      "ThÃ¢n": 8384,
      "ĠhoÃ¡n": 8385,
      "heim": 8386,
      "/ch": 8387,
      "umi": 8388,
      "ĠLiga": 8389,
      "ĠLim": 8390,
      "/QÄĲXX": 8391,
      ".ĠĠ": 8392,
      "plete": 8393,
      "ĠSÆ¡": 8394,
      "VÆ°Æ¡ng": 8395,
      "oln": 8396,
      "ĠÆ¯á»Ľc": 8397,
      "len": 8398,
      "ĠGram": 8399,
      "ÄĲi": 8400,
      "ĠÄĲáº©y": 8401,
      "xin": 8402,
      "aoke": 8403,
      "Nhiá»ĩt": 8404,
      "Ġ1925": 8405,
      "Ġkil": 8406,
      "emon": 8407,
      "ĠmÃ¹ng": 8408,
      "usic": 8409,
      "Æ°á»Ŀm": 8410,
      "ĠVai": 8411,
      "âĢĶ": 8412,
      "onin": 8413,
      "ĠLÃ¢u": 8414,
      "ĠGIáº¢I": 8415,
      "Ġâī¥": 8416,
      "ĠrÃ¡t": 8417,
      "ĠDoÃ£n": 8418,
      "áº¾N": 8419,
      "Pad": 8420,
      "BP": 8421,
      "ĠthuyÃªn": 8422,
      "Ġ\\overrightarrow": 8423,
      "epal": 8424,
      "ĠPap": 8425,
      "ular": 8426,
      "ĠSaudi": 8427,
      "MB": 8428,
      "Ġmo": 8429,
      "RO": 8430,
      "ĠDakota": 8431,
      "ĠWin": 8432,
      "otrich": 8433,
      "anch": 8434,
      "ĠMÃ£n": 8435,
      "&amp;": 8436,
      "ĠHÃło": 8437,
      "trá»«": 8438,
      "Ġ\"con": 8439,
      "phÆ°á»Ŀng": 8440,
      "amph": 8441,
      "ilic": 8442,
      "ĠngáºŃm": 8443,
      "Æ¡ÌĢi": 8444,
      "Ġ2%": 8445,
      "Col": 8446,
      "wig": 8447,
      "-2017": 8448,
      "2O": 8449,
      "ĠChÃ¹a": 8450,
      "ĠYes": 8451,
      "ĠÄĲá»ģn": 8452,
      "Ġlives": 8453,
      "NV": 8454,
      "ĠNhiá»ĩm": 8455,
      "ĠJenn": 8456,
      "âĢĵ0": 8457,
      "Ġ\"CÃ´ng": 8458,
      "ĠGab": 8459,
      "Ġ97": 8460,
      "uta": 8461,
      "endo": 8462,
      "Ġsing": 8463,
      "rem": 8464,
      "ĠAy": 8465,
      "Ġcháº£": 8466,
      "ĠTp": 8467,
      "aden": 8468,
      "ion\"": 8469,
      "ĠElizabeth": 8470,
      "Ġgáº§m": 8471,
      "wan": 8472,
      "Ġ1916": 8473,
      "ĠAlexand": 8474,
      "Ġvá»įt": 8475,
      "Æ¯á»ŀ": 8476,
      "si": 8477,
      "ĠAlg": 8478,
      "^0}": 8479,
      "bin": 8480,
      "Truyá»ģn": 8481,
      "Ġvá»Ĺ": 8482,
      "Ġ1910": 8483,
      "ĠPor": 8484,
      "Ġ\"Bill": 8485,
      "ounce": 8486,
      "ĠBrown": 8487,
      "ĠSá»Ńa": 8488,
      "Æ¯á»ŀNG": 8489,
      "Ġnilon": 8490,
      "rant": 8491,
      "ĠÃļt": 8492,
      "2}{": 8493,
      "ĠLeon": 8494,
      "XÃ¡c": 8495,
      "ĠÄĲáº±ng": 8496,
      "ington": 8497,
      "Ġmiáº¿u": 8498,
      "bi": 8499,
      "ĠMak": 8500,
      "ĠXIV": 8501,
      "Ġ1905": 8502,
      "amo": 8503,
      "Ġ1919": 8504,
      "Khá»Łi": 8505,
      "Ġ1911": 8506,
      "Ġmiá»ĩn": 8507,
      "menia": 8508,
      "Bl": 8509,
      "[5]": 8510,
      "/2007": 8511,
      "Ġ2}": 8512,
      "unct": 8513,
      "HáºŃu": 8514,
      "Ġbr": 8515,
      "ĠSC": 8516,
      "zy": 8517,
      "ĠBir": 8518,
      "Ġflav": 8519,
      "GP": 8520,
      "ĠCá»±u": 8521,
      "Ġcorrect": 8522,
      "ĠInst": 8523,
      "ĠsÃ³i": 8524,
      "ĠPhiáº¿u": 8525,
      "ĠJordan": 8526,
      "Ġsum": 8527,
      "ĠngÃłi": 8528,
      "Ġ\"Em": 8529,
      "ĠDÆ°": 8530,
      "obal": 8531,
      "ĠPCT": 8532,
      "-F": 8533,
      "Ġthá»ĳi": 8534,
      "ĠLiá»ĩu": 8535,
      "ĠBinh": 8536,
      "Ġnhuyá»ħn": 8537,
      "ĠxÃ£:": 8538,
      "iki": 8539,
      "oro": 8540,
      "ĠBat": 8541,
      "Ġspec": 8542,
      "ĠTTXVN": 8543,
      "ĠClub": 8544,
      "âĢĵ1": 8545,
      "Ġnguá»Ļi": 8546,
      "ĠÄĲo": 8547,
      "ĠChÃło": 8548,
      "ĠgÃ³t": 8549,
      "ithi": 8550,
      "rium": 8551,
      "Ġá»¦Y": 8552,
      "Thá»§y": 8553,
      "ĠHoáº·c": 8554,
      "Ġed": 8555,
      "ĠStan": 8556,
      "irc": 8557,
      "IT": 8558,
      "ĠWat": 8559,
      "ĠCEO": 8560,
      "ĠTiá»ĩp": 8561,
      "Ġhá»įa:": 8562,
      "ĠOld": 8563,
      "ĠJam": 8564,
      "ĠBarb": 8565,
      "uventus": 8566,
      "-21": 8567,
      "ĠBangkok": 8568,
      "ĠCTCP": 8569,
      "Ġsáº£n\"": 8570,
      "Ġdiá»ĩu": 8571,
      "ĠTrich": 8572,
      "ĠViá»ĩt:": 8573,
      "amily": 8574,
      "ĠtrÄĥn": 8575,
      "Ġget": 8576,
      "Ġanswer": 8577,
      "ĠÄĳá»ĵng/lÃŃt": 8578,
      "eres": 8579,
      "ĠKal": 8580,
      "via": 8581,
      "Má»įi": 8582,
      "Ġgirl": 8583,
      "ĠShow": 8584,
      "ĠTráº¡i": 8585,
      "unn": 8586,
      "PhÃ¡p": 8587,
      "Ġ228": 8588,
      "Ġchlor": 8589,
      "ĠdÃ©p": 8590,
      "ĠIP": 8591,
      "ift": 8592,
      "ĠFre": 8593,
      "ĠVND": 8594,
      "ĠTháº§y": 8595,
      "ĠxÃŃt": 8596,
      "ĠsÆ°á»Ľng": 8597,
      "ffe": 8598,
      ",Âł": 8599,
      "ichi": 8600,
      "ĠLiá»ħu": 8601,
      "ĠTÆ¯": 8602,
      "NGÄĲ": 8603,
      "Ġcá»¥t": 8604,
      "Net": 8605,
      "Ġthá»¥c": 8606,
      "ken": 8607,
      "Ġlanh": 8608,
      "ĠtÄĥm": 8609,
      "250": 8610,
      "ily": 8611,
      "ĠgiÃ¡o:": 8612,
      "ĠĠĠĠĠĠĠĠĠĠĠĠĠĠĠĠĠĠĠĠĠĠĠĠĠĠĠĠĠĠĠĠĠĠĠĠĠĠĠĠĠĠĠĠĠĠĠĠĠĠĠĠĠĠĠĠĠĠĠĠĠĠĠĠĠĠĠĠĠĠĠĠĠĠĠĠĠĠĠĠĠĠĠĠĠĠĠĠĠĠĠĠĠĠĠĠĠĠĠĠĠĠĠĠĠĠĠĠĠĠĠĠĠĠĠĠĠĠĠĠĠĠĠĠĠĠĠĠĠĠĠĠĠĠĠĠĠĠĠĠĠĠĠĠĠĠĠĠĠĠĠĠĠĠĠĠĠĠĠĠĠĠ": 8613,
      "Ġnháº§y": 8614,
      "Ġ1927": 8615,
      "ÃĶN": 8616,
      "Ġ1-1": 8617,
      "ĠhÃ©t": 8618,
      "ĠDivision": 8619,
      "ĠComm": 8620,
      "Æ°Æ¡Ìģc": 8621,
      "ongo": 8622,
      "Ġ\"CÃ³": 8623,
      "ĠÄĳá»Ŀm": 8624,
      "Ġrá»Ĺng": 8625,
      "Hiá»ĩp": 8626,
      "Ġsentences": 8627,
      "Ġ1923": 8628,
      "ernand": 8629,
      "ĠÄĲá»«ng": 8630,
      "ĠPed": 8631,
      "ata\"": 8632,
      "Cáº¥u": 8633,
      "jo": 8634,
      "ĠkÃ¨": 8635,
      "aha": 8636,
      "Ġnháº¥t:": 8637,
      "iph": 8638,
      "Ġneed": 8639,
      "ĠHarv": 8640,
      "':": 8641,
      "ĠxÃ¬": 8642,
      "ĠJim": 8643,
      "-2021": 8644,
      "ĠÄĳá»ĵng/c": 8645,
      "Ġmá»Ľi\"": 8646,
      "EF": 8647,
      "/2018/NÄĲ-CP": 8648,
      "/HSST": 8649,
      "Ġ1928": 8650,
      "Triá»ĥn": 8651,
      "urs": 8652,
      "ĠmÃ´n:": 8653,
      "ved": 8654,
      "ĠGiá»¯a": 8655,
      "ĠHCV": 8656,
      "nia": 8657,
      "Phim": 8658,
      "ĠTranh": 8659,
      "ĠIb": 8660,
      "ĠBry": 8661,
      "ĠhÃ³a:": 8662,
      "col": 8663,
      "Ġ2-1": 8664,
      "ĠrÃ£nh": 8665,
      "HÃ£ng": 8666,
      "Huáº¥n": 8667,
      "Ġrao": 8668,
      "rik": 8669,
      "ĠBh": 8670,
      "Ġchá»ĳn": 8671,
      "ĠdÃ¢n;": 8672,
      "Ġngai": 8673,
      "ĠtÃ²": 8674,
      "Ġvá»¥n": 8675,
      "ĠHua": 8676,
      "\"P": 8677,
      "ĠÄĲáº¯c": 8678,
      "Ġ173": 8679,
      "Ġmáº¡nh:": 8680,
      "ĠgÃ²": 8681,
      "Wh": 8682,
      "ĠDev": 8683,
      "ĠnaÌĢ": 8684,
      "ĠCÃ³i": 8685,
      "ĠArmenia": 8686,
      "Ġ115": 8687,
      "ju": 8688,
      "anum": 8689,
      "Ste": 8690,
      "Ġváº§n": 8691,
      "ĠHook": 8692,
      "plen": 8693,
      "TÃ¢y": 8694,
      "ĠTrÃ£i": 8695,
      "Ġ31/12": 8696,
      "ĠKo": 8697,
      "Ġchui": 8698,
      "bus": 8699,
      "alo": 8700,
      "ĠcÆ°ng": 8701,
      "Ġsá»Ŀ": 8702,
      "ĠModel": 8703,
      "ĠRen": 8704,
      "ĠTháºŃp": 8705,
      "Ġgot": 8706,
      "ĠVo": 8707,
      "ĠRang": 8708,
      "ĠVu": 8709,
      "ĠDay": 8710,
      "ĠGm": 8711,
      "Ġthá»ĭ:": 8712,
      "Astr": 8713,
      "ĠBN": 8714,
      "oC": 8715,
      "Ġevery": 8716,
      "Ġkhuya": 8717,
      "ĠSec": 8718,
      "ES": 8719,
      "Ġrep": 8720,
      "Ġrap": 8721,
      "Ìĥn": 8722,
      "ĠNST": 8723,
      "Ġprog": 8724,
      "Ġhtt": 8725,
      "ĠQatar": 8726,
      "-W": 8727,
      "ĠT2": 8728,
      "apan": 8729,
      "Ġ1906": 8730,
      "board\"": 8731,
      "Ġmar": 8732,
      "Meg": 8733,
      "Ìīng": 8734,
      "Ġkáº¹p": 8735,
      "ĠmÃ¢m": 8736,
      "Ġgáº§y": 8737,
      "ĠKi": 8738,
      "ĠHuáº¥n": 8739,
      "Ġ{2": 8740,
      "Iá»Ģ": 8741,
      "ĠKm": 8742,
      "wei": 8743,
      "ThÆ°Æ¡ng": 8744,
      "ĠÄĳá»ĵng/thÃ¡ng": 8745,
      "ĠSin": 8746,
      "Ġ135": 8747,
      "tus": 8748,
      "Ġ\"St": 8749,
      "ience": 8750,
      "ĠTá»Ķ": 8751,
      "ĠCarib": 8752,
      "ĠRy": 8753,
      "ĠUSD/ounce": 8754,
      "Ġ#": 8755,
      "Ġml": 8756,
      "aire": 8757,
      "Ġtháº¡c": 8758,
      "Ġ}}": 8759,
      "ĠBut": 8760,
      "atra": 8761,
      "ĠTaylor": 8762,
      "ĠMA": 8763,
      "ĠnÆ°á»Ľc\"": 8764,
      "ucl": 8765,
      "Ġsiáº¿t": 8766,
      "ĠQUYáº¾T": 8767,
      "uat": 8768,
      "ĠBá»ķ": 8769,
      "ĠThis": 8770,
      "ĠJones": 8771,
      "alm": 8772,
      "ĠJung": 8773,
      "ĠTottenham": 8774,
      "ĠLes": 8775,
      "adj": 8776,
      "vent": 8777,
      "ÄĲÃ¡ng": 8778,
      "ĠSev": 8779,
      "ianum": 8780,
      "áº¤u": 8781,
      "ittle": 8782,
      "ĠChá»©c": 8783,
      "-khong/": 8784,
      "ule": 8785,
      "La": 8786,
      "Ġ170": 8787,
      "Ġchá»ķi": 8788,
      "ĠAri": 8789,
      "ĠAmazon": 8790,
      "other": 8791,
      "ET": 8792,
      "Ġhit": 8793,
      "cast": 8794,
      "ĠPle": 8795,
      "ĠJoe": 8796,
      "Ä¨NH": 8797,
      "Ġtur": 8798,
      "ĠColle": 8799,
      "ĠST": 8800,
      "Ráº¥t": 8801,
      "ĠHÃ²n": 8802,
      "Ġ1/2": 8803,
      "ThÃŃ": 8804,
      "uke": 8805,
      "Ä±r": 8806,
      "ĠkÃ¬m": 8807,
      "ĠATGT": 8808,
      "ĠLÃ£ng": 8809,
      "Ġháº»m": 8810,
      "ovich": 8811,
      "ĠApidae": 8812,
      "Ġlot": 8813,
      "Ġact": 8814,
      "ÄĲÃ´ng": 8815,
      "enna": 8816,
      "&PTNT": 8817,
      "ĠTÃºc": 8818,
      "Ġ450": 8819,
      "ĠPot": 8820,
      "ĠchoÃ¡ng": 8821,
      "Ġoff": 8822,
      "mond": 8823,
      "ĠGT": 8824,
      "Ġlá»ĵi": 8825,
      "ĠDaily": 8826,
      "ĠCand": 8827,
      "aman": 8828,
      "ĠMen": 8829,
      "ĠKansas": 8830,
      "Ġáº¤p": 8831,
      ":00": 8832,
      "ĠMuá»ĳn": 8833,
      "2015": 8834,
      "ĠAM": 8835,
      "icran": 8836,
      "ieu-tri": 8837,
      "sey": 8838,
      "John": 8839,
      "ĠNghiÃªm": 8840,
      "agn": 8841,
      "Ġalso": 8842,
      "Ġtá»¥ng:": 8843,
      "ĠGP": 8844,
      "eva": 8845,
      "com/vi/danh-sach/ca-nuoc/coso-benh-vien-v-phong-": 8846,
      "ĪĴ": 8847,
      "ĠCosta": 8848,
      "ĠÄĲK": 8849,
      "ĠMong": 8850,
      "Ġ3;": 8851,
      "ĠAsilidae": 8852,
      "Ġseries": 8853,
      "ĠTy": 8854,
      "Ã¶y": 8855,
      "ĠgÃµ": 8856,
      "entral": 8857,
      "BÃŃ": 8858,
      "ĠLew": 8859,
      "Ġlá»Ŀi:": 8860,
      "Ġngáº¡t": 8861,
      "ĠvÃł/": 8862,
      "ĠCá»ı": 8863,
      "Ġcháº£o": 8864,
      "ĠBÃ£i": 8865,
      "Ġtáº©u": 8866,
      "Doanh": 8867,
      "VOV": 8868,
      "ĠdÃ¢n\"": 8869,
      "cuador": 8870,
      "ĠGame": 8871,
      "ÄĲá»Ļ": 8872,
      "2016": 8873,
      "ĠgiÃ²n": 8874,
      "ĠVKSND": 8875,
      "raw": 8876,
      "ĠÄĳiá»ĥm:": 8877,
      "ĠVoi": 8878,
      "ĠSony": 8879,
      "rix": 8880,
      "Ġláº¡i:": 8881,
      "ĠBá»ĺ": 8882,
      "ĠchÆ°ng": 8883,
      "Suy": 8884,
      "ries": 8885,
      "\\begin{array}{l}": 8886,
      "ĠmuÃ´n": 8887,
      "uka": 8888,
      "EP": 8889,
      "ĠKáº¡n": 8890,
      "ales": 8891,
      "RS": 8892,
      "RiÃªng": 8893,
      "2017": 8894,
      "ĠMiG": 8895,
      "ĠKir": 8896,
      "TrÆ°á»Łng": 8897,
      "Ġ\"sá»±": 8898,
      "ËĲ": 8899,
      "ĠBell": 8900,
      "ĠÄĲÃ¡": 8901,
      "arl": 8902,
      "Ġalb": 8903,
      "ĠYang": 8904,
      "Vi": 8905,
      "thÆ°á»Ŀng": 8906,
      "ĠnÃły;": 8907,
      "ĠCá»ĳc": 8908,
      "\"D": 8909,
      "ĠPost": 8910,
      "olis": 8911,
      "ĠchiÃªm": 8912,
      "estr": 8913,
      "Ġháº¡c": 8914,
      "ĠCÄĲV": 8915,
      "Ġsee": 8916,
      "ĠTá»ĭch": 8917,
      "ĠrÆ°á»Ľc": 8918,
      "Ġ3-4": 8919,
      "ĠLeg": 8920,
      "Ġ\"Kh": 8921,
      "ĠRio": 8922,
      "osum": 8923,
      "anta": 8924,
      "Ġnáº¡o": 8925,
      "Æ°Æ¡u": 8926,
      "Ġfirst": 8927,
      "Lep": 8928,
      "Ġmáº¯ng": 8929,
      "Ġphá»¥ng": 8930,
      "Ġgiá»Ľi\"": 8931,
      "ĠBá»©c": 8932,
      "ĠChÃ¡u": 8933,
      "ÄĲáº·t": 8934,
      "Ã©r": 8935,
      "ĠFootball": 8936,
      "âĨĴ": 8937,
      "osterone": 8938,
      "oom": 8939,
      "pr": 8940,
      "ĠchÃŃch": 8941,
      "IP": 8942,
      "adal": 8943,
      "Ġlive": 8944,
      "Ġpháº§n:": 8945,
      "ĠOttoman": 8946,
      "ĠBuá»Ļc": 8947,
      "ĠBiden": 8948,
      "ĠBec": 8949,
      "ĠsÆ°Ì£": 8950,
      "incoln": 8951,
      "Ġmeth": 8952,
      "ario": 8953,
      "DP": 8954,
      "ĠlÆ°á»Ŀn": 8955,
      "ĠmÃło": 8956,
      "ĠnÃ¡ch": 8957,
      "Ġá»ĳ": 8958,
      "ient": 8959,
      "ĠSak": 8960,
      "Ġmost": 8961,
      "ĠbÆ°á»Ľu": 8962,
      "ĠArm": 8963,
      "hn": 8964,
      "Ġ1909": 8965,
      "-gi": 8966,
      "Ġwhich": 8967,
      "ĠGirl": 8968,
      "ĠVIII": 8969,
      "En": 8970,
      "SC": 8971,
      "ĠlÆ°á»£n": 8972,
      "Ġtá»ĭch:": 8973,
      "á»ĢN": 8974,
      "Ġcá»Ĺ": 8975,
      "Ġ1895": 8976,
      "Ġ\"Má»Ļt": 8977,
      "ouri": 8978,
      "Ġá»§i": 8979,
      "ÄĲá»Ŀi": 8980,
      "Ġ\\angle": 8981,
      "ĠV-League": 8982,
      "teridaceae": 8983,
      "Ġtháº¯p": 8984,
      "-in": 8985,
      "ĠThá»Ľi": 8986,
      "aun": 8987,
      "Ġfollowing": 8988,
      "Ġ'Äĳ": 8989,
      "Ġother": 8990,
      "owski": 8991,
      "AF": 8992,
      "ĠTHA": 8993,
      "Ġ\"Billboard\"": 8994,
      "ĠBit": 8995,
      "ĠReg": 8996,
      "ĠSung": 8997,
      "ĠAmerican": 8998,
      "ĠXi": 8999,
      "-23": 9000,
      "áº¦N": 9001,
      "ĠSir": 9002,
      "vers": 9003,
      "ĠhÃ³a\"": 9004,
      "TÃ²a": 9005,
      "Ġgáº·t": 9006,
      "ĠTRÃĮNH": 9007,
      "Ġlung": 9008,
      "ĠNhá»ĭ": 9009,
      "ĠnÆ°á»Ľu": 9010,
      "uda": 9011,
      "-22": 9012,
      "ĠnÃły:": 9013,
      "ĠNight": 9014,
      "ĠTRÆ¯á»ŀNG": 9015,
      "Ġ\"nhá»¯ng": 9016,
      "ohydrate": 9017,
      "ĠgiaÌīi": 9018,
      "ĠScott": 9019,
      "ology": 9020,
      "ĠPha": 9021,
      "Ġhero": 9022,
      "Ġ1926": 9023,
      "ĠphiÃªu": 9024,
      "^3}": 9025,
      "endron": 9026,
      "ĠRog": 9027,
      "ĠEnd": 9028,
      "ĠMedia": 9029,
      "Ġmassage": 9030,
      "elf": 9031,
      "ĠthÃªÌī": 9032,
      "Ġlá»ĳp": 9033,
      "ĠMoon": 9034,
      "rai": 9035,
      "Ġváº¯t": 9036,
      "Ġthon": 9037,
      "IDV": 9038,
      "inger": 9039,
      "Ġclass": 9040,
      "ĠJuventus": 9041,
      "onsin": 9042,
      "ĠkÃŃp": 9043,
      "ÌĢm": 9044,
      "Ġ\\left\\\\{": 9045,
      "TTDL": 9046,
      "ÄĤN": 9047,
      "ista": 9048,
      "ĠhÄĥng": 9049,
      "Ġ\"Khi": 9050,
      "Iá»ĨM": 9051,
      "ĠTÃĢI": 9052,
      "Mon": 9053,
      "Giá»ĳng": 9054,
      "Ġ94": 9055,
      "ĠDen": 9056,
      "omen": 9057,
      "Ġkaraoke": 9058,
      "Ãĩ": 9059,
      "ĠEcuador": 9060,
      "dy": 9061,
      "ĠListen": 9062,
      "anol": 9063,
      "NÃªn": 9064,
      "Ġteo": 9065,
      "ĠKn": 9066,
      "Ġphot": 9067,
      "ĠPháº«u": 9068,
      "Ġ1921": 9069,
      "arta": 9070,
      "ĠrÃ¬a": 9071,
      "Ġ1915": 9072,
      "Má»Ł": 9073,
      "log": 9074,
      "intendo": 9075,
      "/NQ-CP": 9076,
      "pin": 9077,
      "ĠÆ¯u": 9078,
      "ĠGIÃģ": 9079,
      "ĠBá»Ŀ": 9080,
      "VÃ¹ng": 9081,
      "ĠDVD": 9082,
      "eting": 9083,
      "{1}{{": 9084,
      "ĠÃªm": 9085,
      "ĠMichigan": 9086,
      "Cao": 9087,
      "ĠEnglish": 9088,
      "Ġ\"Ng": 9089,
      "ĠOd": 9090,
      "ss": 9091,
      "Ìīu": 9092,
      "isconsin": 9093,
      "agh": 9094,
      "ĠAnn": 9095,
      "edonia": 9096,
      "ĠArk": 9097,
      "Ġquáº§y": 9098,
      "ĠÃ¡n;": 9099,
      "ĠcÃły": 9100,
      "Cer": 9101,
      "çİ": 9102,
      "ĠFox": 9103,
      "uoi": 9104,
      "Ġ123": 9105,
      "ĠChia": 9106,
      "rea": 9107,
      "-xÃ£": 9108,
      "ĠSL": 9109,
      "Ã¢Ìģy": 9110,
      "esia": 9111,
      "Ġ104": 9112,
      "gg": 9113,
      "ĠmÆ°Æ¡ng": 9114,
      "ĠLá»Ľp": 9115,
      "ĠVá»«a": 9116,
      "ĠlÆ°á»Ľt": 9117,
      "Ġnghiá»ģn": 9118,
      "rew": 9119,
      "ĠBelarus": 9120,
      "ĠAwards": 9121,
      "Ġif": 9122,
      "Ġngháº¹t": 9123,
      "Ġgrand": 9124,
      "Æ¯á»ľNG": 9125,
      "Æ¯T": 9126,
      "u}": 9127,
      "iÄĩ": 9128,
      "ĠLá»¤C": 9129,
      "Ġweek": 9130,
      "ĠAFF": 9131,
      "ĠNic": 9132,
      "ĠCáº¥u": 9133,
      "ĠOx": 9134,
      "Ðº": 9135,
      "äº": 9136,
      "ute": 9137,
      "ĠnÃ³c": 9138,
      "VáºŃt": 9139,
      "imus": 9140,
      "ĠHáº¡ng": 9141,
      "ĠBÃ¢y": 9142,
      "ĠMá»Ļ": 9143,
      "helm": 9144,
      "Ġdang": 9145,
      "hidae": 9146,
      "Ġngá»¡": 9147,
      "ĠHá»©a": 9148,
      "ĠLab": 9149,
      "ĠSV": 9150,
      "ĠTá»ĳt": 9151,
      "Ġem\"": 9152,
      "ĠWisconsin": 9153,
      "Minh": 9154,
      "ĠNN&PTNT": 9155,
      "ĠMD": 9156,
      "5m": 9157,
      "-de-": 9158,
      "ĠJon": 9159,
      "ourn": 9160,
      "Æ¯á»¢": 9161,
      "/phÃºt": 9162,
      "ĠLincoln": 9163,
      "ĠIf": 9164,
      "ĠEa": 9165,
      "Ġ3%": 9166,
      "6]": 9167,
      "odactyl": 9168,
      "Ġquáº¥n": 9169,
      "ĠSáº¢N": 9170,
      "Ġ/ËĪ": 9171,
      "ĠtrÆ°á»Ľng": 9172,
      "Ġlear": 9173,
      "Ġphá»ĵng": 9174,
      "ĠDaniel": 9175,
      "aeus": 9176,
      "idan": 9177,
      "Ġnáº£n": 9178,
      "eman": 9179,
      "nger": 9180,
      "sá»Ńa": 9181,
      "Ġstart": 9182,
      "ĠbÃ©n": 9183,
      "ĠTB": 9184,
      "reen": 9185,
      "ume": 9186,
      "km/h": 9187,
      "ĠBroth": 9188,
      "Ġtháº¡o": 9189,
      "Ġlá»±u": 9190,
      "Ġgáº¡t": 9191,
      "Ġmuch": 9192,
      "osm": 9193,
      "hir": 9194,
      "ĠSlovakia": 9195,
      "Ġváº¥p": 9196,
      "Ġbook": 9197,
      "ĠOm": 9198,
      "Ġnung": 9199,
      "Ġnhá»ĳt": 9200,
      "umbia": 9201,
      "âĢĵ2": 9202,
      "ĠThÃº": 9203,
      "work": 9204,
      "ĠtrÃ¹": 9205,
      "oceph": 9206,
      "uca": 9207,
      "\"A": 9208,
      "ĠÄĳÃ³\"": 9209,
      "Ġword": 9210,
      "Ġngáº§n": 9211,
      "KÃ¨m": 9212,
      "Ġhá»ĳt": 9213,
      "Tá»Ŀ": 9214,
      "mkern": 9215,
      "ugh": 9216,
      "ĠBLHS": 9217,
      "ĠTÃ¡o": 9218,
      "ĠFPT": 9219,
      "ÄĲo": 9220,
      "ĠTMCP": 9221,
      "/KH": 9222,
      "ĠÄĲá»ĺ": 9223,
      "EN": 9224,
      "Ġm3": 9225,
      "^{": 9226,
      "ĠIsland": 9227,
      "Ġngáº¯t": 9228,
      "ĠUB": 9229,
      "oba": 9230,
      "Ġ1mu}": 9231,
      "ĠJae": 9232,
      "ĠNational": 9233,
      "ĠUp": 9234,
      "ĠSanta": 9235,
      "anga": 9236,
      "Du": 9237,
      "atus\"": 9238,
      "achus": 9239,
      "Ġ\"Anh": 9240,
      "Ġé": 9241,
      "ĠNam:": 9242,
      "ĠNou": 9243,
      "/2022/NÄĲ-CP": 9244,
      "ĠLÃĿ": 9245,
      "ĠMÃłu": 9246,
      "ĠSá»Ĳ": 9247,
      "elyp": 9248,
      "tric": 9249,
      "olic": 9250,
      "KÃ½": 9251,
      "ierre": 9252,
      "Ġpseud": 9253,
      "ĠHoan": 9254,
      "osis": 9255,
      "ĠJeff": 9256,
      "ĠxÃłi": 9257,
      "Ġtake": 9258,
      "-gi/": 9259,
      "ophila": 9260,
      "Ġsáº¥y": 9261,
      "rÃ´": 9262,
      "ĠGiáº£": 9263,
      "Ġglyc": 9264,
      "ĠrÃµ:": 9265,
      "ĠAsh": 9266,
      "perm": 9267,
      "ĠNak": 9268,
      "ues": 9269,
      "ĠPlus": 9270,
      "Ġsinh:": 9271,
      "ĠThÃºc": 9272,
      "ĠnhÃ¢n\"": 9273,
      "ĠdÃ¬": 9274,
      "enth": 9275,
      "LA": 9276,
      "ĠÄĲBQH": 9277,
      "ĠphÃ¬nh": 9278,
      "com/vi/tin-tuc/hoi-dap-bac-si/": 9279,
      "ĠvÃ¡c": 9280,
      "Ġhá»ĳc": 9281,
      "oen": 9282,
      "par": 9283,
      "Ġyoga": 9284,
      "ĠTá»ĺI": 9285,
      "Ġtype": 9286,
      "1:": 9287,
      "Sáº£i": 9288,
      "gon": 9289,
      "Ġcháº±ng": 9290,
      "ĠNá»ĺI": 9291,
      "Sal": 9292,
      "ants": 9293,
      "Ġlact": 9294,
      "ĠAPEC": 9295,
      "ĠvÃł/hoáº·c": 9296,
      "mund": 9297,
      "ĠNáºŃm": 9298,
      "ĠngÆ°á»Ŀi;": 9299,
      "ĠNÃł": 9300,
      "Ġá»Ĳ": 9301,
      "ĠBá»į": 9302,
      "ĠÄĳá»Ļng;": 9303,
      "ollis": 9304,
      "It": 9305,
      "ĠÄĳao": 9306,
      "ĠChan": 9307,
      "Ġmuá»Ĺng": 9308,
      "Vá»£": 9309,
      "ĠA:": 9310,
      "agi": 9311,
      "ĠÄĳaÌĥ": 9312,
      "ska": 9313,
      "ĠChuyá»ĩn": 9314,
      "ĠPhÃª": 9315,
      "Ìģm": 9316,
      "BV": 9317,
      "Ġkhoanh": 9318,
      "Ġmáº¡": 9319,
      "Pháº£n": 9320,
      "Ġlym": 9321,
      "ĠÄĲá»ĬA": 9322,
      "urn": 9323,
      "ĠxÃ©": 9324,
      "vis": 9325,
      "Ġwould": 9326,
      "ĠPhÃ¡o": 9327,
      "iaz": 9328,
      "mon": 9329,
      "ĠcÆ°a": 9330,
      "Ġcomm": 9331,
      "ĠVill": 9332,
      "-50": 9333,
      "Ġsá»Łi": 9334,
      "ĠUá»ĳng": 9335,
      "ĠcÃºc": 9336,
      "Há»ĵi": 9337,
      "ĠNgÃ´n": 9338,
      "ili": 9339,
      "umber": 9340,
      "uez": 9341,
      "Ġtwo": 9342,
      "ĠIU": 9343,
      "ĠDO": 9344,
      "ĠÄĳáº¥m": 9345,
      "ĠCB": 9346,
      "Ġ360": 9347,
      "ĠKhÃ´i": 9348,
      "Mai": 9349,
      "ĠMÅ©i": 9350,
      "ĠAI": 9351,
      "Mal": 9352,
      "Váº¥n": 9353,
      "ĠTáº§m": 9354,
      "ĠMÃł": 9355,
      "cher": 9356,
      "ĠvÃ¢Ì£t": 9357,
      "Ġsulf": 9358,
      "á»ĺC": 9359,
      "PG": 9360,
      "ĠLaw": 9361,
      "aven": 9362,
      "Dáº¥u": 9363,
      "odium": 9364,
      "ĠÄĲá»ķi": 9365,
      "ĠDem": 9366,
      "Ġdiá»ħu": 9367,
      "Ġláº«y": 9368,
      "Man": 9369,
      "ĠVTC": 9370,
      "Ġfacebook": 9371,
      "Ġlá»Ľn\"": 9372,
      "ĠliÃªng": 9373,
      "war": 9374,
      "TrÃ¬nh": 9375,
      "Ġbin": 9376,
      "ĠCÃģC": 9377,
      "ĠPi": 9378,
      "Ġkhuynh": 9379,
      "Ġgá»Ļi": 9380,
      "ĠCamb": 9381,
      "Ġgiá»¥": 9382,
      "Ġbáº¡t": 9383,
      "Ġtáº¡c": 9384,
      "ulidae": 9385,
      "Dip": 9386,
      "ryopteridaceae": 9387,
      "ĠChÄĥn": 9388,
      "/2006": 9389,
      "Äį": 9390,
      "ĠTae": 9391,
      "ĠDryopteridaceae": 9392,
      "estions": 9393,
      "rick": 9394,
      "Ġsuyá»ħn": 9395,
      "erto": 9396,
      "hitcountid=100": 9397,
      "Ġ144": 9398,
      "Ġná»Ļ": 9399,
      "120": 9400,
      "ĠFin": 9401,
      "ĠNhuáºŃn": 9402,
      "%/nÄĥm": 9403,
      "ĠDáº§n": 9404,
      "PHá»¤": 9405,
      "ĠBáº§u": 9406,
      "SO": 9407,
      "ĠâĢľT": 9408,
      "Ġtrans": 9409,
      "Ġfood": 9410,
      "ticidae": 9411,
      "ĠH'": 9412,
      "Ġdáº¡n": 9413,
      "Ġcap": 9414,
      "chá»ī": 9415,
      "Ġkhiáº¿t": 9416,
      "uto": 9417,
      "Viá»ĩn": 9418,
      "pir": 9419,
      "Ġdiffer": 9420,
      "áºłN": 9421,
      "ĠlÃ¹n": 9422,
      "ĠWhite": 9423,
      "Ġlat": 9424,
      "ĠJava": 9425,
      "TÆ°": 9426,
      "ĠHiá»ĥu": 9427,
      "Ġgia\"": 9428,
      "ĠSalticidae": 9429,
      "ĠMike": 9430,
      "ogn": 9431,
      "2013": 9432,
      "[[Thá»ĥ": 9433,
      "Ð»": 9434,
      "ĠBuá»ķi": 9435,
      "ĠKiev": 9436,
      "Call": 9437,
      "Chá»©ng": 9438,
      "ĠPep": 9439,
      "ĠphÆ°Æ¡ng;": 9440,
      "yrt": 9441,
      "Ġthá»ģ": 9442,
      "ĠPolypod": 9443,
      "etes": 9444,
      "iron": 9445,
      "2018": 9446,
      "Ġ1903": 9447,
      "ĠPháº£n": 9448,
      "GTVT": 9449,
      "&TT": 9450,
      "ĠATP": 9451,
      "agalus": 9452,
      "ĠEVN": 9453,
      "3}{": 9454,
      "iber": 9455,
      "ĠHOáºłCH": 9456,
      "Dend": 9457,
      "ĠNintendo": 9458,
      "inae": 9459,
      "zon": 9460,
      "Ġ1A": 9461,
      "agne": 9462,
      "icia": 9463,
      "or\"": 9464,
      "KTT": 9465,
      "\\Delta": 9466,
      "ĠNar": 9467,
      "ĠTer": 9468,
      "oct": 9469,
      "ĠLanka": 9470,
      "eco": 9471,
      "omon": 9472,
      "Ġkm/h": 9473,
      "Bar": 9474,
      "ĠGard": 9475,
      "urus": 9476,
      "ĠF1": 9477,
      "ĠvÄĥng": 9478,
      "Trich": 9479,
      "VI": 9480,
      "ĠPolypodiaceae": 9481,
      "ĠTuyá»ģn": 9482,
      "zi": 9483,
      "ĠWilliams": 9484,
      "Nhá»Ŀ": 9485,
      "Ġbáº§y": 9486,
      "Ġmol": 9487,
      "CG": 9488,
      "ĠAlbert": 9489,
      "-2030": 9490,
      "ÅĤaw": 9491,
      "Astragalus": 9492,
      "Báº±ng": 9493,
      "Ġlen": 9494,
      "ĠAlf": 9495,
      "ĠPTNT": 9496,
      "ĠCá»§": 9497,
      "idea": 9498,
      "ĠnhÃ£": 9499,
      "ĠSn": 9500,
      "ellidae": 9501,
      "ĠTrÃ¢m": 9502,
      "omor": 9503,
      "/12;": 9504,
      "ĠsÃ´Ìģ": 9505,
      "ĠráºŃm": 9506,
      ",Ġ...": 9507,
      "/Vietnam+": 9508,
      "Ġtháº©m:": 9509,
      "ĠMaz": 9510,
      "ĠKa": 9511,
      "kel": 9512,
      "ĠCR": 9513,
      "ĠGro": 9514,
      "ĠMunich": 9515,
      "ĠBob": 9516,
      "ĠXIX": 9517,
      "ĠU22": 9518,
      "-TT": 9519,
      "Há»Ĺ": 9520,
      "Saint": 9521,
      "Camp": 9522,
      "Ġ\"An": 9523,
      "ĠPHÃĵ": 9524,
      "ĠPanama": 9525,
      "Ġbit": 9526,
      "Ġ2\"": 9527,
      "ĠDream": 9528,
      "Ġ\\frac{": 9529,
      "ĠÄĳáº«m": 9530,
      ";}}": 9531,
      "ĠHÃ£n": 9532,
      "5%:": 9533,
      "Ġ1898": 9534,
      "DD": 9535,
      "ĠKenn": 9536,
      "ĠÄĲiá»ĩp": 9537,
      "ĠMB": 9538,
      "bot": 9539,
      "fi": 9540,
      "Lept": 9541,
      "Ġhoi": 9542,
      "ĠPop": 9543,
      "ĠCÃ¡o": 9544,
      "agan": 9545,
      ")...": 9546,
      "Ġráº«y": 9547,
      "udd": 9548,
      "ĠVN-Index": 9549,
      "iter": 9550,
      "aking": 9551,
      "Ġká»ĩ": 9552,
      "Song": 9553,
      "Ġ\"Trong": 9554,
      "ĠBoston": 9555,
      "ĠbÃ´": 9556,
      "xem": 9557,
      "ĠNghá»ģ": 9558,
      "Ġsáº£y": 9559,
      "omat": 9560,
      "Ġvá»¯a": 9561,
      "Neo": 9562,
      "inol": 9563,
      "-14": 9564,
[...]
